{
  "version": "1.0",
  "truncation": null,
  "padding": null,
  "added_tokens": [
    {
      "id": 0,
      "content": "<|endoftext|>",
      "single_word": false,
      "lstrip": false,
      "rstrip": false,
      "normalized": false,
      "special": true
    }
  ],
  "normalizer": null,
  "pre_tokenizer": {
    "type": "ByteLevel",
    "add_prefix_space": false,
    "trim_offsets": true,
    "use_regex": true
  },
  "post_processor": {
    "type": "ByteLevel",
    "add_prefix_space": true,
    "trim_offsets": true,
    "use_regex": true
  },
  "decoder": {
    "type": "ByteLevel",
    "add_prefix_space": true,
    "trim_offsets": true,
    "use_regex": true
  },
  "model": {
    "type": "BPE",
    "dropout": null,
    "unk_token": null,
    "continuing_subword_prefix": null,
    "end_of_word_suffix": null,
    "fuse_unk": false,
    "vocab": {
      "<|endoftext|>": 0,
      "!": 1,
      "\"": 2,
      "#": 3,
      "$": 4,
      "%": 5,
      "&": 6,
      "'": 7,
      "(": 8,
      ")": 9,
      "*": 10,
      "+": 11,
      ",": 12,
      "-": 13,
      ".": 14,
      "/": 15,
      "0": 16,
      "1": 17,
      "2": 18,
      "3": 19,
      "4": 20,
      "5": 21,
      "6": 22,
      "7": 23,
      "8": 24,
      "9": 25,
      ":": 26,
      ";": 27,
      "<": 28,
      "=": 29,
      ">": 30,
      "?": 31,
      "@": 32,
      "A": 33,
      "B": 34,
      "C": 35,
      "D": 36,
      "E": 37,
      "F": 38,
      "G": 39,
      "H": 40,
      "I": 41,
      "J": 42,
      "K": 43,
      "L": 44,
      "M": 45,
      "N": 46,
      "O": 47,
      "P": 48,
      "Q": 49,
      "R": 50,
      "S": 51,
      "T": 52,
      "U": 53,
      "V": 54,
      "W": 55,
      "X": 56,
      "Y": 57,
      "Z": 58,
      "[": 59,
      "\\": 60,
      "]": 61,
      "^": 62,
      "_": 63,
      "`": 64,
      "a": 65,
      "b": 66,
      "c": 67,
      "d": 68,
      "e": 69,
      "f": 70,
      "g": 71,
      "h": 72,
      "i": 73,
      "j": 74,
      "k": 75,
      "l": 76,
      "m": 77,
      "n": 78,
      "o": 79,
      "p": 80,
      "q": 81,
      "r": 82,
      "s": 83,
      "t": 84,
      "u": 85,
      "v": 86,
      "w": 87,
      "x": 88,
      "y": 89,
      "z": 90,
      "{": 91,
      "|": 92,
      "}": 93,
      "~": 94,
      "¡": 95,
      "¢": 96,
      "£": 97,
      "¤": 98,
      "¥": 99,
      "¦": 100,
      "§": 101,
      "¨": 102,
      "©": 103,
      "ª": 104,
      "«": 105,
      "¬": 106,
      "®": 107,
      "¯": 108,
      "°": 109,
      "±": 110,
      "²": 111,
      "³": 112,
      "´": 113,
      "µ": 114,
      "¶": 115,
      "·": 116,
      "¸": 117,
      "¹": 118,
      "º": 119,
      "»": 120,
      "¼": 121,
      "½": 122,
      "¾": 123,
      "¿": 124,
      "À": 125,
      "Á": 126,
      "Â": 127,
      "Ã": 128,
      "Ä": 129,
      "Å": 130,
      "Æ": 131,
      "Ç": 132,
      "È": 133,
      "É": 134,
      "Ê": 135,
      "Ë": 136,
      "Ì": 137,
      "Í": 138,
      "Î": 139,
      "Ï": 140,
      "Ð": 141,
      "Ñ": 142,
      "Ò": 143,
      "Ó": 144,
      "Ô": 145,
      "Õ": 146,
      "Ö": 147,
      "×": 148,
      "Ø": 149,
      "Ù": 150,
      "Ú": 151,
      "Û": 152,
      "Ü": 153,
      "Ý": 154,
      "Þ": 155,
      "ß": 156,
      "à": 157,
      "á": 158,
      "â": 159,
      "ã": 160,
      "ä": 161,
      "å": 162,
      "æ": 163,
      "ç": 164,
      "è": 165,
      "é": 166,
      "ê": 167,
      "ë": 168,
      "ì": 169,
      "í": 170,
      "î": 171,
      "ï": 172,
      "ð": 173,
      "ñ": 174,
      "ò": 175,
      "ó": 176,
      "ô": 177,
      "õ": 178,
      "ö": 179,
      "÷": 180,
      "ø": 181,
      "ù": 182,
      "ú": 183,
      "û": 184,
      "ü": 185,
      "ý": 186,
      "þ": 187,
      "ÿ": 188,
      "Ā": 189,
      "ā": 190,
      "Ă": 191,
      "ă": 192,
      "Ą": 193,
      "ą": 194,
      "Ć": 195,
      "ć": 196,
      "Ĉ": 197,
      "ĉ": 198,
      "Ċ": 199,
      "ċ": 200,
      "Č": 201,
      "č": 202,
      "Ď": 203,
      "ď": 204,
      "Đ": 205,
      "đ": 206,
      "Ē": 207,
      "ē": 208,
      "Ĕ": 209,
      "ĕ": 210,
      "Ė": 211,
      "ė": 212,
      "Ę": 213,
      "ę": 214,
      "Ě": 215,
      "ě": 216,
      "Ĝ": 217,
      "ĝ": 218,
      "Ğ": 219,
      "ğ": 220,
      "Ġ": 221,
      "ġ": 222,
      "Ģ": 223,
      "ģ": 224,
      "Ĥ": 225,
      "ĥ": 226,
      "Ħ": 227,
      "ħ": 228,
      "Ĩ": 229,
      "ĩ": 230,
      "Ī": 231,
      "ī": 232,
      "Ĭ": 233,
      "ĭ": 234,
      "Į": 235,
      "į": 236,
      "İ": 237,
      "ı": 238,
      "Ĳ": 239,
      "ĳ": 240,
      "Ĵ": 241,
      "ĵ": 242,
      "Ķ": 243,
      "ķ": 244,
      "ĸ": 245,
      "Ĺ": 246,
      "ĺ": 247,
      "Ļ": 248,
      "ļ": 249,
      "Ľ": 250,
      "ľ": 251,
      "Ŀ": 252,
      "ŀ": 253,
      "Ł": 254,
      "ł": 255,
      "Ń": 256,
      ",,": 257,
      "Ġz": 258,
      "Ġ|": 259,
      "Ġ[": 260,
      "Ġ%": 261,
      "Ġ^": 262,
      "Ġx": 263,
      "Ġ(": 264,
      ",,]": 265,
      ",,,": 266,
      ",]": 267,
      "ĠG": 268,
      "ĠA": 269,
      "ĠD": 270,
      "ĠB": 271,
      "ĠC": 272,
      "ĠE": 273,
      "Ġ_": 274,
      "ĠF": 275,
      "][": 276,
      "16": 277,
      ",,^": 278,
      "Ġ[^": 279,
      "Ġc": 280,
      "Ġd": 281,
      "Ġ=": 282,
      ",^": 283,
      "Ġ[_": 284,
      "Ġe": 285,
      "12": 286,
      ",,_": 287,
      "nm": 288,
      "=\"": 289,
      ",_": 290,
      ",,][": 291,
      "Ġg": 292,
      "Ġf": 293,
      "Ġb": 294,
      ",,/": 295,
      "re": 296,
      ",/": 297,
      "Ġa": 298,
      "Ġ[=": 299,
      ",,,]": 300,
      "]/": 301,
      ",][": 302,
      "15": 303,
      "Ġ|[": 304,
      ",,=": 305,
      "']": 306,
      "le": 307,
      "Ġnm": 308,
      "CE": 309,
      "Ġs": 310,
      "Ġsnm": 311,
      "10": 312,
      ",,,^": 313,
      ",,[": 314,
      "Ġt": 315,
      "21": 316,
      ",=": 317,
      "ble": 318,
      "reble": 319,
      "Ġtreble": 320,
      "11": 321,
      "FA": 322,
      "EG": 323,
      "14": 324,
      "ss": 325,
      "ass": 326,
      "13": 327,
      "[^": 328,
      "GB": 329,
      "ic": 330,
      "CA": 331,
      "en": 332,
      "24": 333,
      ",,]^": 334,
      "FD": 335,
      "Ġbass": 336,
      "][^": 337,
      "us": 338,
      "17": 339,
      "usic": 340,
      "GE": 341,
      "Music": 342,
      "DF": 343,
      "DG": 344,
      "19": 345,
      "EC": 346,
      "CF": 347,
      "'^": 348,
      "cA": 349,
      "[_": 350,
      "EA": 351,
      "BG": 352,
      "in": 353,
      "Bd": 354,
      "18": 355,
      ",,,_": 356,
      "''": 357,
      "ĠĊ": 358,
      "ra": 359,
      "BB": 360,
      "ce": 361,
      "GG": 362,
      ",,]/": 363,
      "AA": 364,
      ",]/": 365,
      "20": 366,
      "][_": 367,
      "CC": 368,
      "DB": 369,
      "32": 370,
      "EB": 371,
      "25": 372,
      "23": 373,
      "EE": 374,
      "'_": 375,
      "CG": 376,
      ",,][^": 377,
      "cc": 378,
      "'d": 379,
      "DD": 380,
      "tr": 381,
      "22": 382,
      "FF": 383,
      "co": 384,
      ",-": 385,
      "DA": 386,
      "no": 387,
      "te": 388,
      "28": 389,
      "eb": 390,
      "FB": 391,
      "Ġ1": 392,
      "ent": 393,
      "Gc": 394,
      "ment": 395,
      "30": 396,
      "26": 397,
      "29": 398,
      "Ġ2": 399,
      "31": 400,
      "lin": 401,
      "27": 402,
      "of": 403,
      "ak": 404,
      "ec": 405,
      "end": 406,
      "48": 407,
      ",[": 408,
      "xt": 409,
      "rag": 410,
      "reak": 411,
      "<|": 412,
      "|>": 413,
      "text": 414,
      "oftext": 415,
      "endoftext": 416,
      "Ġ$": 417,
      "ĠFrag": 418,
      "ebreak": 419,
      "linebreak": 420,
      "ĠFragment": 421,
      "Ac": 422,
      "core": 423,
      "'/": 424,
      "%%": 425,
      "score": 426,
      "33": 427,
      "Ġ3": 428,
      "36": 429,
      "34": 430,
      "fd": 431,
      "eg": 432,
      "GA": 433,
      "35": 434,
      "37": 435,
      "CD": 436,
      "38": 437,
      "EF": 438,
      "ee": 439,
      "GF": 440,
      ",,-": 441,
      "40": 442,
      "]/[": 443,
      "/^": 444,
      "Ġ)": 445,
      "BA": 446,
      "dd": 447,
      "]-": 448,
      "ff": 449,
      "'][": 450,
      "cd": 451,
      ",,,/": 452,
      "ed": 453,
      "Ġ4": 454,
      "fa": 455,
      "mp": 456,
      "41": 457,
      "FC": 458,
      "ED": 459,
      "39": 460,
      "[=": 461,
      ",,][_": 462,
      "Bc": 463,
      "FG": 464,
      "'=": 465,
      "42": 466,
      "44": 467,
      "GD": 468,
      "fg": 469,
      "Str": 470,
      "45": 471,
      "Sa": 472,
      "CB": 473,
      ",][^": 474,
      "49": 475,
      "46": 476,
      ",,,=": 477,
      "/[": 478,
      "50": 479,
      "43": 480,
      "er": 481,
      "][=": 482,
      "GC": 483,
      "AF": 484,
      "]^": 485,
      "/-": 486,
      "gg": 487,
      "47": 488,
      "BF": 489,
      ">[": 490,
      "eB": 491,
      "cB": 492,
      "ĠAA": 493,
      "Samp": 494,
      "ef": 495,
      "Ec": 496,
      "Ġ5": 497,
      "52": 498,
      "FE": 499,
      "dA": 500,
      ",,[^": 501,
      "cf": 502,
      "ga": 503,
      "dB": 504,
      "60": 505,
      "cG": 506,
      "120": 507,
      "cC": 508,
      "51": 509,
      "BD": 510,
      "ĠĠ": 511,
      "ge": 512,
      "53": 513,
      "55": 514,
      "64": 515,
      "Pno": 516,
      "dD": 517,
      "/_": 518,
      "56": 519,
      "ar": 520,
      "aA": 521,
      "54": 522,
      "BE": 523,
      "df": 524,
      "ne": 525,
      "eA": 526,
      "CEG": 527,
      "erc": 528,
      "ns": 529,
      "eE": 530,
      "Perc": 531,
      "Dd": 532,
      "ĠBA": 533,
      "gd": 534,
      "57": 535,
      "]_": 536,
      "gf": 537,
      ",][_": 538,
      "bb": 539,
      ",,,][": 540,
      "lec": 541,
      "Elec": 542,
      "gc": 543,
      "ĠGA": 544,
      "Gd": 545,
      "Bb": 546,
      "80": 547,
      "Cc": 548,
      "Ġ6": 549,
      "AE": 550,
      "100": 551,
      "AD": 552,
      "58": 553,
      "gG": 554,
      "fe": 555,
      "Fd": 556,
      "59": 557,
      "DE": 558,
      "Aa": 559,
      "bd": 560,
      "ba": 561,
      "ĠDD": 562,
      "fc": 563,
      "Be": 564,
      "os": 565,
      "ĠGG": 566,
      "65": 567,
      "Ad": 568,
      "bg": 569,
      "none": 570,
      "Ee": 571,
      "Fc": 572,
      "61": 573,
      "ĠEE": 574,
      "62": 575,
      "Ff": 576,
      "ia": 577,
      "70": 578,
      "cE": 579,
      "AB": 580,
      "ea": 581,
      "Ġcd": 582,
      "Gg": 583,
      "ĠCD": 584,
      ">^": 585,
      ",,]_": 586,
      "72": 587,
      "ĠCC": 588,
      "eG": 589,
      "63": 590,
      ",,][=": 591,
      "ECG": 592,
      ",,[_": 593,
      "ĠAG": 594,
      "gb": 595,
      "BC": 596,
      "90": 597,
      "ĠAB": 598,
      "Ġed": 599,
      "Ġdc": 600,
      "fF": 601,
      ",,>": 602,
      "bc": 603,
      "ose": 604,
      "iano": 605,
      "ĠFF": 606,
      "cF": 607,
      "66": 608,
      "68": 609,
      "Piano": 610,
      "Ġtra": 611,
      "ĠBc": 612,
      ",,]/[": 613,
      "ĠBB": 614,
      "67": 615,
      "Ġtrans": 616,
      "pose": 617,
      "Ge": 618,
      "Ġtranspose": 619,
      "']/": 620,
      "69": 621,
      "fA": 622,
      "CEA": 623,
      "on": 624,
      "-]": 625,
      ",]-": 626,
      "Ġ7": 627,
      ",>": 628,
      "Ġcc": 629,
      "AC": 630,
      "AG": 631,
      ",,,,": 632,
      "ĠcB": 633,
      "CFA": 634,
      "ta": 635,
      "=-": 636,
      "ĠED": 637,
      "ĠGtr": 638,
      "/=": 639,
      "ĠFG": 640,
      "75": 641,
      "ad": 642,
      "Ġde": 643,
      "Ġdd": 644,
      "ing": 645,
      "71": 646,
      ",,,]^": 647,
      "ĠEG": 648,
      "ac": 649,
      "dg": 650,
      "88": 651,
      "'']": 652,
      ",]^": 653,
      "73": 654,
      "76": 655,
      "74": 656,
      "ĠDE": 657,
      "ĠĠĠĠ": 658,
      "it": 659,
      "DGB": 660,
      ",]/[": 661,
      ",/^": 662,
      "78": 663,
      "aa": 664,
      "eC": 665,
      "FDA": 666,
      "85": 667,
      "ĠGF": 668,
      "DC": 669,
      "110": 670,
      "AAA": 671,
      "84": 672,
      "ĠEF": 673,
      "DFA": 674,
      "bB": 675,
      "ĠCG": 676,
      "86": 677,
      "79": 678,
      "String": 679,
      "ĠDA": 680,
      "77": 681,
      "96": 682,
      "ĠDF": 683,
      "dG": 684,
      ",,[=": 685,
      "Sta": 686,
      "fB": 687,
      "ĠCE": 688,
      "Ġee": 689,
      "ĠDG": 690,
      "Ġ8": 691,
      "'-": 692,
      ",][=": 693,
      "de": 694,
      "an": 695,
      ",/-": 696,
      "lo": 697,
      "82": 698,
      "ĠGB": 699,
      "ĠAc": 700,
      ",,(": 701,
      "87": 702,
      "83": 703,
      "Ġfe": 704,
      "bf": 705,
      "Staff": 706,
      "BBB": 707,
      "ĠFA": 708,
      "112": 709,
      "gB": 710,
      "dc": 711,
      "dF": 712,
      "ĠFE": 713,
      "FCA": 714,
      "ĠGE": 715,
      ",,,[": 716,
      ",,,][^": 717,
      "81": 718,
      ",,/^": 719,
      "GEC": 720,
      "ĠEA": 721,
      "or": 722,
      "af": 723,
      "fD": 724,
      "ĠcA": 725,
      "Ġga": 726,
      "ĠCB": 727,
      "EGB": 728,
      "FAc": 729,
      "Eb": 730,
      "BGD": 731,
      "]=": 732,
      "GDB": 733,
      "89": 734,
      "ĠDC": 735,
      "GEB": 736,
      ",,]=": 737,
      "cD": 738,
      "128": 739,
      "{/": 740,
      "ECA": 741,
      "<^": 742,
      "150": 743,
      "Or": 744,
      "92": 745,
      "EGc": 746,
      ")\"": 747,
      "95": 748,
      "ĠFD": 749,
      "ck": 750,
      "be": 751,
      "ca": 752,
      "Cl": 753,
      "94": 754,
      "98": 755,
      "99": 756,
      "ĠBd": 757,
      "Ġff": 758,
      "ĠCA": 759,
      "ru": 760,
      ",,,-": 761,
      "Bf": 762,
      ">_": 763,
      "ĠEB": 764,
      "<[": 765,
      "]>[": 766,
      "Ġba": 767,
      "ĠDB": 768,
      "118": 769,
      "130": 770,
      ",/_": 771,
      "cg": 772,
      "93": 773,
      "Bg": 774,
      "Ġgf": 775,
      "108": 776,
      "ae": 777,
      "'[": 778,
      "Ġag": 779,
      "cGE": 780,
      "Ġgg": 781,
      "Ch": 782,
      "ĠdB": 783,
      "tric": 784,
      "Ae": 785,
      "](": 786,
      "91": 787,
      "ĠEC": 788,
      "Electric": 789,
      "-[": 790,
      "eF": 791,
      "GBd": 792,
      "ĠdA": 793,
      "fb": 794,
      "Ġef": 795,
      "'][^": 796,
      "97": 797,
      "ĠCF": 798,
      "itar": 799,
      ",,,]/": 800,
      "Ġfg": 801,
      "ion": 802,
      "ĠGD": 803,
      ",-]": 804,
      "Tra": 805,
      "uitar": 806,
      "ĠAF": 807,
      "116": 808,
      "ĠBG": 809,
      "105": 810,
      ",[^": 811,
      "ĠBass": 812,
      "Ġ9": 813,
      ",]_": 814,
      "Ġfd": 815,
      "Fl": 816,
      "Ġbb": 817,
      "<_": 818,
      "Track": 819,
      "FDB": 820,
      ",,]-": 821,
      "140": 822,
      "115": 823,
      "Bass": 824,
      "''^": 825,
      ",,}": 826,
      "]/[^": 827,
      "gC": 828,
      ",(": 829,
      ",,/_": 830,
      "104": 831,
      "ag": 832,
      "FAd": 833,
      "Ġgd": 834,
      "qu": 835,
      "Ce": 836,
      "ch": 837,
      "ĠĠĠĠĠĠĠĠ": 838,
      "107": 839,
      "109": 840,
      "ler": 841,
      "ĠAE": 842,
      "ĠGc": 843,
      "102": 844,
      "101": 845,
      "gA": 846,
      "da": 847,
      "ĠOr": 848,
      "Sampler": 849,
      "Hp": 850,
      "Af": 851,
      "]/-": 852,
      "119": 853,
      "ĠAAAA": 854,
      "uss": 855,
      "Ġce": 856,
      "Ġge": 857,
      "125": 858,
      "gE": 859,
      "ĠAd": 860,
      "Ġaa": 861,
      "rum": 862,
      "Percuss": 863,
      "tru": 864,
      "ĠBBBB": 865,
      "103": 866,
      "Ins": 867,
      "Percussion": 868,
      "trument": 869,
      "Instrument": 870,
      "bA": 871,
      "Br": 872,
      "fC": 873,
      "Ace": 874,
      "gD": 875,
      "DFB": 876,
      "GGG": 877,
      "eD": 878,
      "bG": 879,
      ",[_": 880,
      "ĠM": 881,
      ",,/[": 882,
      "CCC": 883,
      ",,/-": 884,
      "ĠGuitar": 885,
      "fG": 886,
      "EEE": 887,
      "117": 888,
      "et": 889,
      "''_": 890,
      "106": 891,
      "ĠS": 892,
      "tic": 893,
      "Ġec": 894,
      "ĠH": 895,
      "'][_": 896,
      "StringInstrument": 897,
      "ustic": 898,
      "Ġ10": 899,
      "Gf": 900,
      "ĠcG": 901,
      "coustic": 902,
      ",,-]": 903,
      "AFC": 904,
      "min": 905,
      "bD": 906,
      "Ġdf": 907,
      "CDF": 908,
      "Strings": 909,
      "Ġgc": 910,
      "114": 911,
      ">=": 912,
      ",/=": 913,
      "Acoustic": 914,
      "Gce": 915,
      "cAF": 916,
      "am": 917,
      ",,,][_": 918,
      "144": 919,
      "cAE": 920,
      "111": 921,
      "--": 922,
      "ab": 923,
      "th": 924,
      "Ġeg": 925,
      "FFF": 926,
      "Ġby": 927,
      "113": 928,
      "il": 929,
      "BGE": 930,
      "ĠFC": 931,
      "ccc": 932,
      "Ġbc": 933,
      "com": 934,
      "126": 935,
      "ve": 936,
      "DDD": 937,
      "un": 938,
      "EGC": 939,
      "ence": 940,
      "ĠPiano": 941,
      "gF": 942,
      "''=": 943,
      "Ġad": 944,
      "al": 945,
      "io": 946,
      "GBe": 947,
      "bF": 948,
      "eee": 949,
      "pt": 950,
      "ĠAD": 951,
      "FBd": 952,
      "om": 953,
      ",,](": 954,
      "ĠT": 955,
      "Vl": 956,
      "Drum": 957,
      "ecA": 958,
      "Tpt": 959,
      "Ġfc": 960,
      "Bdf": 961,
      "st": 962,
      "145": 963,
      "ig": 964,
      "Ġab": 965,
      "{/^": 966,
      ">[^": 967,
      "Har": 968,
      "ĠOrg": 969,
      "ho": 970,
      "160": 971,
      "Ġac": 972,
      "147": 973,
      "Ti": 974,
      "bC": 975,
      "BAG": 976,
      "ĠW": 977,
      "]/[_": 978,
      ",]=": 979,
      "Tr": 980,
      "dE": 981,
      "bE": 982,
      "hi": 983,
      "BFD": 984,
      "ute": 985,
      "ĠBe": 986,
      "122": 987,
      "AFD": 988,
      "elo": 989,
      "138": 990,
      "ma": 991,
      "dC": 992,
      "129": 993,
      "180": 994,
      "'''": 995,
      "equ": 996,
      "ĠFB": 997,
      "fga": 998,
      "124": 999,
      "132": 1000,
      "edc": 1001,
      ">[_": 1002,
      "elod": 1003,
      "equence": 1004,
      "aD": 1005,
      "Timp": 1006,
      "EAc": 1007,
      "fE": 1008,
      "135": 1009,
      "GCE": 1010,
      "Brs": 1011,
      "Cb": 1012,
      "Bdg": 1013,
      "ĠGC": 1014,
      "elody": 1015,
      "Ġcf": 1016,
      "fdA": 1017,
      "ecG": 1018,
      "200": 1019,
      "em": 1020,
      "Ġ11": 1021,
      "Ed": 1022,
      "Ob": 1023,
      "egb": 1024,
      "FAD": 1025,
      ",/[": 1026,
      "Mar": 1027,
      "Oc": 1028,
      "ceg": 1029,
      "136": 1030,
      "121": 1031,
      "Drums": 1032,
      "DFG": 1033,
      "Sequence": 1034,
      "Ab": 1035,
      ",,,>": 1036,
      "are": 1037,
      ",,<": 1038,
      ",,,,]": 1039,
      "']/[": 1040,
      "Ġdg": 1041,
      "Ġfa": 1042,
      "'][=": 1043,
      "Ġ-": 1044,
      "mail": 1045,
      "ĠL": 1046,
      "Ġbg": 1047,
      "ddd": 1048,
      "CGE": 1049,
      "ĠĠĠĠĠĠĠĠĠĠĠĠĠĠĠĠ": 1050,
      "ave": 1051,
      "FDD": 1052,
      "CEC": 1053,
      ",](": 1054,
      "arin": 1055,
      "AEC": 1056,
      "is": 1057,
      "Harp": 1058,
      "fcA": 1059,
      "Ġbd": 1060,
      "142": 1061,
      "CFG": 1062,
      "{/[": 1063,
      "GDG": 1064,
      "148": 1065,
      "nd": 1066,
      "Dc": 1067,
      "137": 1068,
      "123": 1069,
      "Ġae": 1070,
      "el": 1071,
      "ĠGd": 1072,
      "127": 1073,
      ",,,]_": 1074,
      "ĠI": 1075,
      "EGE": 1076,
      "dBG": 1077,
      "cde": 1078,
      "Fe": 1079,
      "GBE": 1080,
      "131": 1081,
      "134": 1082,
      "146": 1083,
      "Sax": 1084,
      "sp": 1085,
      "ĠeB": 1086,
      "to": 1087,
      ",,/=": 1088,
      "omp": 1089,
      "ĠeA": 1090,
      "BdG": 1091,
      "ĠK": 1092,
      "Ġea": 1093,
      "aB": 1094,
      "Eg": 1095,
      "-^": 1096,
      "170": 1097,
      "DGG": 1098,
      "gan": 1099,
      "165": 1100,
      "ĠBE": 1101,
      "GAB": 1102,
      "as": 1103,
      "yn": 1104,
      "ead": 1105,
      "aF": 1106,
      "Flute": 1107,
      "152": 1108,
      ",]>[": 1109,
      "egc": 1110,
      "ĠWave": 1111,
      ",,]/[^": 1112,
      "BDG": 1113,
      "155": 1114,
      "158": 1115,
      ",<": 1116,
      "141": 1117,
      "mpet": 1118,
      "DEG": 1119,
      "Adf": 1120,
      "gec": 1121,
      "Sequenced": 1122,
      "Ġ12": 1123,
      "ord": 1124,
      ">[=": 1125,
      ",,,,,": 1126,
      "GBG": 1127,
      "Melody": 1128,
      "Bcd": 1129,
      "Hn": 1130,
      "139": 1131,
      "ĠcF": 1132,
      "ECC": 1133,
      "rumpet": 1134,
      "EFG": 1135,
      "quare": 1136,
      "ĠFc": 1137,
      "aE": 1138,
      "']-": 1139,
      "cAc": 1140,
      "CDE": 1141,
      "Vln": 1142,
      "/>": 1143,
      "]/[=": 1144,
      ".\"": 1145,
      "db": 1146,
      "jo": 1147,
      "FAC": 1148,
      "ompos": 1149,
      "Cd": 1150,
      "FED": 1151,
      ",,,/^": 1152,
      "cEA": 1153,
      "Ġfga": 1154,
      "ll": 1155,
      "Ġgb": 1156,
      "Ġccc": 1157,
      "DGD": 1158,
      "inal": 1159,
      "Vio": 1160,
      "Trumpet": 1161,
      "Acf": 1162,
      "ggg": 1163,
      "]/^": 1164,
      "<=": 1165,
      "Ġcg": 1166,
      "at": 1167,
      "ĠGGGG": 1168,
      "CFF": 1169,
      ",[=": 1170,
      "-_": 1171,
      "174": 1172,
      "BGG": 1173,
      "CGc": 1174,
      "ĠAe": 1175,
      "BcB": 1176,
      "133": 1177,
      "Pic": 1178,
      "143": 1179,
      "Fa": 1180,
      "cea": 1181,
      "ynth": 1182,
      "ĠSax": 1183,
      "EGG": 1184,
      "'/-": 1185,
      "Square": 1186,
      "ht": 1187,
      ",,]}": 1188,
      "fff": 1189,
      "FGA": 1190,
      "Sh": 1191,
      "ceA": 1192,
      "CGC": 1193,
      "DFD": 1194,
      "ir": 1195,
      "Ġbe": 1196,
      "FAA": 1197,
      "'/^": 1198,
      "ĠCCCC": 1199,
      "ĠFl": 1200,
      "EDC": 1201,
      "154": 1202,
      "''/": 1203,
      "GEG": 1204,
      "cec": 1205,
      "ĠOrgan": 1206,
      "CEGB": 1207,
      "bo": 1208,
      "EAd": 1209,
      "and": 1210,
      "aC": 1211,
      "Gtr": 1212,
      "bgd": 1213,
      "CEB": 1214,
      "CAF": 1215,
      "156": 1216,
      "bag": 1217,
      ",]/-": 1218,
      "BBBB": 1219,
      "BdB": 1220,
      "bbb": 1221,
      "Vo": 1222,
      "ĠdG": 1223,
      "CEF": 1224,
      "Gcf": 1225,
      "Ġaf": 1226,
      "ABb": 1227,
      "CAE": 1228,
      "]>": 1229,
      "ECE": 1230,
      "chd": 1231,
      "he": 1232,
      "schd": 1233,
      "Hpschd": 1234,
      "Acc": 1235,
      "ĠCCC": 1236,
      "FAF": 1237,
      "ice": 1238,
      "172": 1239,
      "Ġcccc": 1240,
      "Gsp": 1241,
      "aG": 1242,
      "fed": 1243,
      "EDE": 1244,
      "la": 1245,
      "ob": 1246,
      "op": 1247,
      "AEA": 1248,
      "Cf": 1249,
      "ACF": 1250,
      "CAA": 1251,
      "ĠJ": 1252,
      "'>": 1253,
      "ip": 1254,
      "CEE": 1255,
      "'/_": 1256,
      "----": 1257,
      "Ġ#": 1258,
      ",,,]=": 1259,
      "GED": 1260,
      "Vb": 1261,
      "149": 1262,
      "Vbp": 1263,
      "240": 1264,
      "orn": 1265,
      "cEG": 1266,
      "GFC": 1267,
      "Vla": 1268,
      "BDF": 1269,
      "ĠR": 1270,
      "Ġeeee": 1271,
      "ĠfF": 1272,
      "ĠFFFF": 1273,
      "ĠeE": 1274,
      "DAd": 1275,
      "gdB": 1276,
      "ĠN": 1277,
      "ĠfA": 1278,
      "GFE": 1279,
      "fac": 1280,
      "DBG": 1281,
      "FDF": 1282,
      "ĠBAG": 1283,
      "]<": 1284,
      "im": 1285,
      "itle": 1286,
      "ĠDd": 1287,
      "Trb": 1288,
      "ame": 1289,
      "arinet": 1290,
      "ĠBcd": 1291,
      "CFC": 1292,
      "ĠP": 1293,
      "Ġ13": 1294,
      "ID": 1295,
      ",,,}": 1296,
      "162": 1297,
      "153": 1298,
      "iginal": 1299,
      ",,,]-": 1300,
      "ani": 1301,
      "Brass": 1302,
      "ight": 1303,
      "Ca": 1304,
      "ĠEEEE": 1305,
      "ECF": 1306,
      "Gb": 1307,
      "ĠdD": 1308,
      "FDG": 1309,
      "geg": 1310,
      "175": 1311,
      "Ba": 1312,
      "ĠAC": 1313,
      "178": 1314,
      "ym": 1315,
      "ĠcBA": 1316,
      "FDC": 1317,
      "cCc": 1318,
      "Original": 1319,
      "EGA": 1320,
      "Clarinet": 1321,
      "GBD": 1322,
      "hone": 1323,
      "cAA": 1324,
      "]}": 1325,
      "Voice": 1326,
      "Synth": 1327,
      "ĠFFF": 1328,
      "IDI": 1329,
      "''][": 1330,
      "fad": 1331,
      ",,,[^": 1332,
      "=\"(": 1333,
      "Ġfed": 1334,
      "151": 1335,
      "GEE": 1336,
      "BEG": 1337,
      "EAC": 1338,
      "Gcd": 1339,
      "ĠĠĠĠĠĠĠĠĠĠĠĠĠĠĠĠĠĠĠĠĠĠĠĠĠĠĠĠĠĠĠĠ": 1340,
      "FCD": 1341,
      "BGd": 1342,
      "cBA": 1343,
      "dAF": 1344,
      "mer": 1345,
      "tle": 1346,
      "ĠeG": 1347,
      "gfc": 1348,
      "/(": 1349,
      "ng": 1350,
      ",,]/^": 1351,
      "omposer": 1352,
      "aAD": 1353,
      ",-^": 1354,
      "{/[^": 1355,
      "DGA": 1356,
      "]<[": 1357,
      ",,,,^": 1358,
      "cfc": 1359,
      "bass": 1360,
      "ĠStrings": 1361,
      "ECB": 1362,
      "cAe": 1363,
      "fdB": 1364,
      "EFA": 1365,
      "CEc": 1366,
      "Cg": 1367,
      "179": 1368,
      ",>^": 1369,
      "176": 1370,
      "']^": 1371,
      "GFG": 1372,
      "dAd": 1373,
      "Fre": 1374,
      "cCC": 1375,
      "GDE": 1376,
      ",}": 1377,
      "eBG": 1378,
      "177": 1379,
      "Df": 1380,
      "FBB": 1381,
      "dGB": 1382,
      "EAA": 1383,
      "Timpani": 1384,
      "BGB": 1385,
      "ĠBD": 1386,
      "ich": 1387,
      "eBe": 1388,
      "ĠGGG": 1389,
      "Ġeee": 1390,
      "fgc": 1391,
      "gfe": 1392,
      "Clv": 1393,
      ",,,,=": 1394,
      "EcG": 1395,
      "obu": 1396,
      "CDA": 1397,
      "ĠBBB": 1398,
      "159": 1399,
      "Ġof": 1400,
      "ddD": 1401,
      "164": 1402,
      "168": 1403,
      "Ġbf": 1404,
      "'s": 1405,
      "Da": 1406,
      "Ġda": 1407,
      "Violin": 1408,
      "FCF": 1409,
      "tk": 1410,
      ",,,][=": 1411,
      ",,/>": 1412,
      "Lead": 1413,
      "FAE": 1414,
      "ony": 1415,
      "AcF": 1416,
      "GAG": 1417,
      "']_": 1418,
      "lls": 1419,
      "br": 1420,
      "oe": 1421,
      ",,,,_": 1422,
      "EBE": 1423,
      "Beg": 1424,
      "ĠDDD": 1425,
      "ĠDDDD": 1426,
      "fdf": 1427,
      "'(": 1428,
      "ebe": 1429,
      "ACE": 1430,
      "Dg": 1431,
      "GBB": 1432,
      "arina": 1433,
      "Db": 1434,
      "Vc": 1435,
      "Ġ14": 1436,
      "250": 1437,
      "ĠHand": 1438,
      "DAD": 1439,
      "GcC": 1440,
      "**": 1441,
      "oir": 1442,
      "ichord": 1443,
      "cfa": 1444,
      "ow": 1445,
      "Sq": 1446,
      ",]}": 1447,
      "ĠdF": 1448,
      "GdG": 1449,
      "CDG": 1450,
      "DAF": 1451,
      "GcG": 1452,
      "Ocarina": 1453,
      "Ea": 1454,
      ",]/[_": 1455,
      "GcE": 1456,
      "Ġ/": 1457,
      "ĠO": 1458,
      "/[^": 1459,
      "CH": 1460,
      "163": 1461,
      "GdB": 1462,
      "169": 1463,
      "Choir": 1464,
      "ĠMas": 1465,
      "FGB": 1466,
      "161": 1467,
      ",,,[_": 1468,
      "nel": 1469,
      "GFD": 1470,
      "157": 1471,
      "ADF": 1472,
      "aobu": 1473,
      "cb": 1474,
      "EEEE": 1475,
      "aes": 1476,
      "joaobu": 1477,
      "joaobuaes": 1478,
      "Tba": 1479,
      "Picc": 1480,
      "DCA": 1481,
      "ĠABc": 1482,
      "EAB": 1483,
      ",]/[^": 1484,
      "De": 1485,
      "dgb": 1486,
      "Fcf": 1487,
      ",,,-]": 1488,
      "cFA": 1489,
      "GGGG": 1490,
      "Shn": 1491,
      "ACA": 1492,
      "Guitar": 1493,
      "Ġcomposer": 1494,
      ",,]/-": 1495,
      "FFFF": 1496,
      "cdf": 1497,
      "Oboe": 1498,
      "Cym": 1499,
      "Ġgggg": 1500,
      "ichi": 1501,
      "BAB": 1502,
      ",,,/-": 1503,
      "ADA": 1504,
      "uda": 1505,
      "<[^": 1506,
      "AcA": 1507,
      "ĠJun": 1508,
      "fcd": 1509,
      "ĠGcd": 1510,
      "ceG": 1511,
      "sn": 1512,
      "FAB": 1513,
      "ecC": 1514,
      "dAD": 1515,
      "GGB": 1516,
      "lock": 1517,
      "AFA": 1518,
      "ik": 1519,
      "ĠGe": 1520,
      "171": 1521,
      ",,]/[_": 1522,
      "ver": 1523,
      "EAE": 1524,
      "GCF": 1525,
      "ged": 1526,
      "geB": 1527,
      "ĠgB": 1528,
      "<[_": 1529,
      "Win": 1530,
      "ys": 1531,
      "aaa": 1532,
      "00": 1533,
      "BGDG": 1534,
      "eae": 1535,
      "ĠMasuda": 1536,
      "ĠJunichi": 1537,
      ",,/[^": 1538,
      "GEc": 1539,
      "emo": 1540,
      "215": 1541,
      "eGc": 1542,
      "zip": 1543,
      ",,,,,]": 1544,
      "]/_": 1545,
      "ĠADEA": 1546,
      "Ġfgad": 1547,
      "zipmail": 1548,
      "Tu": 1549,
      "aec": 1550,
      "ĠEc": 1551,
      "DGd": 1552,
      "rand": 1553,
      "Jam": 1554,
      "phone": 1555,
      "ĠcAc": 1556,
      "Bdd": 1557,
      ",-_": 1558,
      "afc": 1559,
      "ro": 1560,
      "ĠDemo": 1561,
      "CEGc": 1562,
      "CCCC": 1563,
      "id": 1564,
      "gdg": 1565,
      "annel": 1566,
      "WinJam": 1567,
      "WinJammer": 1568,
      "]/>": 1569,
      "192": 1570,
      "Al": 1571,
      "ĠAGE": 1572,
      "ĠcE": 1573,
      "CcC": 1574,
      "EDB": 1575,
      "ĠTrack": 1576,
      "FdA": 1577,
      "MIDI": 1578,
      ",]>": 1579,
      "=\"\"": 1580,
      "ede": 1581,
      "EFB": 1582,
      "cEC": 1583,
      "ĠGo": 1584,
      "ĠBF": 1585,
      "ĠEEE": 1586,
      "cAG": 1587,
      "/[_": 1588,
      "DFd": 1589,
      "DDA": 1590,
      "bone": 1591,
      "FcA": 1592,
      "Ġddd": 1593,
      "Ġ15": 1594,
      "ĠDrum": 1595,
      "Rec": 1596,
      "Un": 1597,
      "ĠAAA": 1598,
      "bge": 1599,
      "GECC": 1600,
      "ombone": 1601,
      "EcA": 1602,
      "166": 1603,
      "Ġdad": 1604,
      "EcC": 1605,
      "220": 1606,
      "Ġfb": 1607,
      "gbe": 1608,
      "hot": 1609,
      "imba": 1610,
      "/{/": 1611,
      "EBG": 1612,
      "Fg": 1613,
      "Bce": 1614,
      "afd": 1615,
      "ĠCDEG": 1616,
      ",>_": 1617,
      "Game": 1618,
      "sichord": 1619,
      "Ġabc": 1620,
      "est": 1621,
      "fFF": 1622,
      "]/=": 1623,
      "gggg": 1624,
      "DBd": 1625,
      "GEA": 1626,
      "BdA": 1627,
      "ĠKit": 1628,
      "zz": 1629,
      "ĠbB": 1630,
      "\"\"": 1631,
      "ur": 1632,
      ",,]>[": 1633,
      "Clst": 1634,
      "Trombone": 1635,
      "210": 1636,
      "GgG": 1637,
      "eGC": 1638,
      "ĠBo": 1639,
      "ĠEns": 1640,
      "'[^": 1641,
      "Emin": 1642,
      "Ġeb": 1643,
      "Ġefg": 1644,
      "Ġffff": 1645,
      "enor": 1646,
      "''''": 1647,
      "faA": 1648,
      "eac": 1649,
      "hotmail": 1650,
      "es": 1651,
      "gGG": 1652,
      "ECD": 1653,
      "Fb": 1654,
      "ĠcC": 1655,
      "faf": 1656,
      "Ag": 1657,
      "by": 1658,
      "yl": 1659,
      "DGdg": 1660,
      "CFc": 1661,
      "Harpsichord": 1662,
      "Alto": 1663,
      "AaA": 1664,
      "ĠAa": 1665,
      ",,,](": 1666,
      ",,]/[=": 1667,
      "CGB": 1668,
      "Ef": 1669,
      "GCG": 1670,
      "ire": 1671,
      ",,>^": 1672,
      "ĠDCB": 1673,
      "Harm": 1674,
      "GFB": 1675,
      "cGG": 1676,
      "ĠFd": 1677,
      "Ġdef": 1678,
      "ĠGAB": 1679,
      ",<^": 1680,
      "aAA": 1681,
      "ĠCCG": 1682,
      "ĠEd": 1683,
      "Ġdddd": 1684,
      "ecg": 1685,
      "'/=": 1686,
      "eme": 1687,
      "Vi": 1688,
      "Ġ19": 1689,
      "ĠFGA": 1690,
      "190": 1691,
      "BdF": 1692,
      "tless": 1693,
      "FEA": 1694,
      "cGEC": 1695,
      "167": 1696,
      "Ġbbbb": 1697,
      "EGD": 1698,
      "Cmin": 1699,
      "DEA": 1700,
      "EEG": 1701,
      "ul": 1702,
      "ĠFDA": 1703,
      "ĠABce": 1704,
      "ĠEnsem": 1705,
      "Bsn": 1706,
      "FdD": 1707,
      "dDD": 1708,
      "ecc": 1709,
      "heme": 1710,
      "ĠcBAG": 1711,
      "Ġded": 1712,
      "DFF": 1713,
      ",,-^": 1714,
      "ĠBBcc": 1715,
      "und": 1716,
      "ĠLead": 1717,
      "EDA": 1718,
      "hs": 1719,
      "BdD": 1720,
      "Gdg": 1721,
      "chin": 1722,
      "ĠEnsemble": 1723,
      "ok": 1724,
      "ol": 1725,
      "Ġaga": 1726,
      "cdc": 1727,
      "ĠIchin": 1728,
      "ĠIchinose": 1729,
      "Amin": 1730,
      "Tenor": 1731,
      "olo": 1732,
      "title": 1733,
      "EcE": 1734,
      "dAdA": 1735,
      "Fretless": 1736,
      "titled": 1737,
      "ĠdE": 1738,
      "DGc": 1739,
      "ĠHorn": 1740,
      "ĠGcdg": 1741,
      "GCC": 1742,
      "bfd": 1743,
      "Ma": 1744,
      "efg": 1745,
      ",/>": 1746,
      "CEAA": 1747,
      "AAD": 1748,
      "arr": 1749,
      "bells": 1750,
      "DDB": 1751,
      "cgc": 1752,
      "ĠBl": 1753,
      "BDB": 1754,
      "ĠgG": 1755,
      "FDE": 1756,
      "ard": 1757,
      "EDG": 1758,
      "Ccc": 1759,
      "ST": 1760,
      "]>[_": 1761,
      "ĠGrand": 1762,
      "CAc": 1763,
      "AFCF": 1764,
      "eft": 1765,
      "EeE": 1766,
      "ĠZ": 1767,
      "GBg": 1768,
      "iel": 1769,
      "Tbells": 1770,
      "]>[^": 1771,
      "dDG": 1772,
      "ter": 1773,
      "Channel": 1774,
      "DDG": 1775,
      "EBB": 1776,
      "ĠdcB": 1777,
      "unar": 1778,
      "--------": 1779,
      "CCE": 1780,
      "CDB": 1781,
      "FGE": 1782,
      "rd": 1783,
      "CGA": 1784,
      "GcF": 1785,
      "'[_": 1786,
      "GAc": 1787,
      "Ġm": 1788,
      "Ġ16": 1789,
      ",]/_": 1790,
      "cCG": 1791,
      "ĠEFG": 1792,
      "CEAc": 1793,
      "tem": 1794,
      "dDd": 1795,
      "low": 1796,
      "Eng": 1797,
      "GDA": 1798,
      "cGC": 1799,
      "ĠDr": 1800,
      "omposed": 1801,
      "fgf": 1802,
      "AFc": 1803,
      "ĠEFEF": 1804,
      "ĠĠĠĠĠĠĠĠĠĠĠĠĠĠĠĠĠĠĠĠĠĠĠĠĠĠĠĠĠĠĠĠĠĠĠĠĠĠĠĠĠĠĠĠĠĠĠĠĠĠĠĠĠĠĠĠĠĠĠĠĠĠĠĠ": 1805,
      "Gcc": 1806,
      "gbd": 1807,
      ",,,]/[": 1808,
      "rano": 1809,
      ",,>_": 1810,
      "cGc": 1811,
      "ĠaA": 1812,
      "FDCA": 1813,
      "AAAA": 1814,
      "fde": 1815,
      "Marimba": 1816,
      "AN": 1817,
      "Horn": 1818,
      "bfc": 1819,
      "eEA": 1820,
      "ong": 1821,
      "oprano": 1822,
      "Title": 1823,
      "bra": 1824,
      "ĠGg": 1825,
      "ccC": 1826,
      "Mario": 1827,
      "AFF": 1828,
      "CGG": 1829,
      "ĠFEF": 1830,
      "']>[": 1831,
      "199": 1832,
      "GDC": 1833,
      "Bgd": 1834,
      "Glock": 1835,
      "Tom": 1836,
      "dDA": 1837,
      "ĠFGF": 1838,
      "-]/": 1839,
      "av": 1840,
      "dBF": 1841,
      "llo": 1842,
      "ĠfB": 1843,
      "gab": 1844,
      "net": 1845,
      "Ġcde": 1846,
      "FGc": 1847,
      "Re": 1848,
      "dfd": 1849,
      "ou": 1850,
      "per": 1851,
      "ĠDEF": 1852,
      "'](": 1853,
      "CED": 1854,
      "CCG": 1855,
      "GAd": 1856,
      "cGe": 1857,
      "FfF": 1858,
      "ĠII": 1859,
      "Vibra": 1860,
      "Right": 1861,
      "{/_": 1862,
      "ĠeF": 1863,
      "ensp": 1864,
      "198": 1865,
      "BGC": 1866,
      ",]/^": 1867,
      "eeE": 1868,
      "GFc": 1869,
      "bbbb": 1870,
      "enspiel": 1871,
      "Con": 1872,
      "Pis": 1873,
      "Soprano": 1874,
      "ew": 1875,
      ",]/[=": 1876,
      "PI": 1877,
      ",,]>": 1878,
      "ĠGFED": 1879,
      "Glockenspiel": 1880,
      "Vibraphone": 1881,
      "Composed": 1882,
      "FFA": 1883,
      "Ga": 1884,
      "Ġdcd": 1885,
      "''']": 1886,
      "'''=": 1887,
      "fda": 1888,
      ",,-_": 1889,
      "art": 1890,
      "cho": 1891,
      ",,/[_": 1892,
      "CFB": 1893,
      "FBD": 1894,
      "FBc": 1895,
      "BbB": 1896,
      "Tuba": 1897,
      "'<": 1898,
      "-\"": 1899,
      "ĠEe": 1900,
      "ĠcBc": 1901,
      "CEe": 1902,
      "EGd": 1903,
      "DAdf": 1904,
      "tal": 1905,
      "2002": 1906,
      "Harmony": 1907,
      "BDD": 1908,
      "ĠABd": 1909,
      "ĠAGF": 1910,
      "ĠABAB": 1911,
      "ĠDEEE": 1912,
      "Ġthe": 1913,
      "BGA": 1914,
      "AECA": 1915,
      "amed": 1916,
      "ireMario": 1917,
      "]>^": 1918,
      "named": 1919,
      "ri": 1920,
      "ylo": 1921,
      "ĠbA": 1922,
      "ick": 1923,
      "197": 1924,
      "EBEB": 1925,
      ",,,/=": 1926,
      "ĠGAGF": 1927,
      "Unnamed": 1928,
      "AdA": 1929,
      "FCG": 1930,
      "eAc": 1931,
      "fAD": 1932,
      "EGBe": 1933,
      "173": 1934,
      "cfF": 1935,
      "Ġedc": 1936,
      "Ġbag": 1937,
      "stle": 1938,
      "AEc": 1939,
      "DCD": 1940,
      "dDF": 1941,
      "ĠGDB": 1942,
      "ĠFED": 1943,
      "cAB": 1944,
      "EBe": 1945,
      "ege": 1946,
      "Saw": 1947,
      "ĠGcGc": 1948,
      "elda": 1949,
      "BEB": 1950,
      "Sec": 1951,
      "ls": 1952,
      ",,,(": 1953,
      "ĠAf": 1954,
      "ĠCc": 1955,
      "ĠEDE": 1956,
      "GBA": 1957,
      "fdd": 1958,
      "efe": 1959,
      "gdG": 1960,
      "FcF": 1961,
      "ĠTheme": 1962,
      "GCA": 1963,
      "oth": 1964,
      "colo": 1965,
      "AFd": 1966,
      "ĠBAB": 1967,
      "The": 1968,
      "dFD": 1969,
      "gmail": 1970,
      "piano": 1971,
      "Ġfedc": 1972,
      "Ġagf": 1973,
      "cAC": 1974,
      "BGF": 1975,
      "cee": 1976,
      "DEF": 1977,
      "GeB": 1978,
      "Left": 1979,
      "ap": 1980,
      "melody": 1981,
      "int": 1982,
      "ĠCDC": 1983,
      "enced": 1984,
      "BEC": 1985,
      "BFB": 1986,
      "Ddd": 1987,
      "DCB": 1988,
      "FdB": 1989,
      "dDB": 1990,
      "uenced": 1991,
      "GBGB": 1992,
      "DFc": 1993,
      "AAC": 1994,
      "238": 1995,
      "FFB": 1996,
      "ĠEBFG": 1997,
      "Secuenced": 1998,
      "caA": 1999,
      "rom": 2000,
      "tas": 2001,
      "DFAd": 2002,
      "?\"": 2003,
      "BFC": 2004,
      "FEF": 2005,
      "dcd": 2006,
      "eGE": 2007,
      "ĠBy": 2008,
      "ĠFAcf": 2009,
      "GECA": 2010,
      "ecB": 2011,
      "fdD": 2012,
      "ffc": 2013,
      "ĠfdBd": 2014,
      "FBdB": 2015,
      "Piccolo": 2016,
      "ystem": 2017,
      "Ġcfgc": 2018,
      "FBE": 2019,
      "CDC": 2020,
      "Bcf": 2021,
      "DED": 2022,
      "New": 2023,
      "CEGC": 2024,
      "endo": 2025,
      "efb": 2026,
      "Ġcdc": 2027,
      "untitled": 2028,
      "intendo": 2029,
      "Aea": 2030,
      "DdD": 2031,
      "tra": 2032,
      "Ġ200": 2033,
      ",,>[": 2034,
      "Ġcgc": 2035,
      "185": 2036,
      "'']/": 2037,
      "ceC": 2038,
      "ceE": 2039,
      "eBGE": 2040,
      "dAE": 2041,
      "ĠABcd": 2042,
      "ings": 2043,
      "224": 2044,
      "EEC": 2045,
      "EEA": 2046,
      "NE": 2047,
      "fAF": 2048,
      "ĠBcde": 2049,
      "ĠFAc": 2050,
      "Ġaaaa": 2051,
      "BdBd": 2052,
      "208": 2053,
      "252": 2054,
      "egG": 2055,
      "cfC": 2056,
      "gGg": 2057,
      "bab": 2058,
      "ANO": 2059,
      "Piste": 2060,
      "Gec": 2061,
      "SS": 2062,
      "BFd": 2063,
      "ĠGAG": 2064,
      "Ada": 2065,
      "Bfd": 2066,
      "fAc": 2067,
      "GBc": 2068,
      "cAcA": 2069,
      "184": 2070,
      "GGC": 2071,
      "egg": 2072,
      "Gde": 2073,
      "Orch": 2074,
      "PIANO": 2075,
      "St": 2076,
      "cCA": 2077,
      "cfg": 2078,
      "eEE": 2079,
      "les": 2080,
      "baa": 2081,
      "FCC": 2082,
      "GGD": 2083,
      "236": 2084,
      "ggG": 2085,
      "DdDG": 2086,
      "antas": 2087,
      "ĠFlute": 2088,
      "Qu": 2089,
      "dfa": 2090,
      "ound": 2091,
      "ĠDDG": 2092,
      "cAD": 2093,
      "cord": 2094,
      "ĠCCGG": 2095,
      "BFG": 2096,
      "oon": 2097,
      "ĠAGFE": 2098,
      "ĠFireMario": 2099,
      "ĠeC": 2100,
      "196": 2101,
      "DDDD": 2102,
      "dAG": 2103,
      "****": 2104,
      "bBB": 2105,
      "nch": 2106,
      "ica": 2107,
      "EAe": 2108,
      ",]/=": 2109,
      "FFC": 2110,
      "cdB": 2111,
      "ĠGABc": 2112,
      "DGE": 2113,
      "Geg": 2114,
      "Sn": 2115,
      "ccA": 2116,
      "dFB": 2117,
      "oo": 2118,
      "FFE": 2119,
      "FEB": 2120,
      "Pan": 2121,
      "eGB": 2122,
      "izz": 2123,
      "ĠDFA": 2124,
      "ĠCDE": 2125,
      "ecE": 2126,
      "gdgd": 2127,
      "ĠdcBA": 2128,
      "/[=": 2129,
      "ai": 2130,
      "az": 2131,
      "gce": 2132,
      "ĠAGA": 2133,
      "red": 2134,
      "GECG": 2135,
      "ced": 2136,
      "efc": 2137,
      "AdF": 2138,
      "Ġdefg": 2139,
      "bou": 2140,
      "ĠNintendo": 2141,
      ",<_": 2142,
      "AGA": 2143,
      "dBB": 2144,
      "ĠGame": 2145,
      "ĠDFD": 2146,
      "Ġgbd": 2147,
      "Bdfg": 2148,
      "teel": 2149,
      "ĠEFED": 2150,
      "ĠMIDI": 2151,
      "ipe": 2152,
      "System": 2153,
      "au": 2154,
      "eAA": 2155,
      "ĠAcd": 2156,
      "ĠDGDE": 2157,
      "ĠCEA": 2158,
      "ĠECA": 2159,
      "CFE": 2160,
      "FBF": 2161,
      "AcE": 2162,
      "'/[": 2163,
      "ack": 2164,
      "French": 2165,
      "GcA": 2166,
      "Wd": 2167,
      "gBG": 2168,
      "Ġca": 2169,
      "Ġfac": 2170,
      "Ġbbb": 2171,
      "214": 2172,
      "Aca": 2173,
      "arp": 2174,
      "eEe": 2175,
      "ian": 2176,
      "]<[^": 2177,
      "estra": 2178,
      "AR": 2179,
      "DEE": 2180,
      "Dmin": 2181,
      "Su": 2182,
      "agf": 2183,
      "dFA": 2184,
      "ĠV": 2185,
      "Ġ17": 2186,
      "ĠGFE": 2187,
      "ĠcEAc": 2188,
      "DDd": 2189,
      "CDFA": 2190,
      "FCB": 2191,
      "geG": 2192,
      "dfb": 2193,
      "FdF": 2194,
      "']/-": 2195,
      "DFAc": 2196,
      "ophone": 2197,
      "ĠZelda": 2198,
      "antasy": 2199,
      "Bjo": 2200,
      "Ece": 2201,
      "acA": 2202,
      "dcB": 2203,
      "]/(": 2204,
      "]/>[": 2205,
      "corder": 2206,
      "AdD": 2207,
      "CcG": 2208,
      "gfg": 2209,
      "ww": 2210,
      "ĠGfcd": 2211,
      "ĠECG": 2212,
      "Ġand": 2213,
      "oft": 2214,
      "Organ": 2215,
      "ĠHn": 2216,
      "ĠSaxophone": 2217,
      "eEB": 2218,
      "ui": 2219,
      "ĠDc": 2220,
      "EGcC": 2221,
      "ECc": 2222,
      "cAf": 2223,
      "'''_": 2224,
      "ccE": 2225,
      "trings": 2226,
      "ĠedcB": 2227,
      "Ġedef": 2228,
      "ĠBcBc": 2229,
      "CFAc": 2230,
      "bfbf": 2231,
      "Recorder": 2232,
      "..": 2233,
      "aFD": 2234,
      "cEE": 2235,
      "dGG": 2236,
      "eaA": 2237,
      "fAd": 2238,
      "ld": 2239,
      "FAcf": 2240,
      "Gcg": 2241,
      "eeee": 2242,
      "Ġcdeg": 2243,
      "dgB": 2244,
      "tooth": 2245,
      "gege": 2246,
      "ĠBoy": 2247,
      "'-]": 2248,
      "Eee": 2249,
      "Final": 2250,
      "GDD": 2251,
      "cFC": 2252,
      "tion": 2253,
      "ĠBf": 2254,
      "ĠFantasy": 2255,
      "Bdb": 2256,
      "cGCA": 2257,
      "eAE": 2258,
      "Viola": 2259,
      "Accord": 2260,
      "DAA": 2261,
      "Fce": 2262,
      "Xyl": 2263,
      "one": 2264,
      "ĠY": 2265,
      ",]>[=": 2266,
      "ĠfG": 2267,
      "Ġfff": 2268,
      "EGe": 2269,
      "182": 2270,
      "300": 2271,
      "fgb": 2272,
      "Celes": 2273,
      "FFD": 2274,
      "Pipe": 2275,
      "cFF": 2276,
      "drum": 2277,
      "ere": 2278,
      "Ġ&": 2279,
      ",,,,][": 2280,
      "FBe": 2281,
      "dAB": 2282,
      "cCF": 2283,
      "ĠFDB": 2284,
      "BGDB": 2285,
      "ffF": 2286,
      "gag": 2287,
      "ĠBdBd": 2288,
      "Orchestra": 2289,
      "GFF": 2290,
      "Hm": 2291,
      "Pizz": 2292,
      ",,<^": 2293,
      "ĠecAc": 2294,
      "FDFD": 2295,
      "Hmca": 2296,
      "Whs": 2297,
      "]{/^": 2298,
      "fDF": 2299,
      "ĠcD": 2300,
      "Ġdga": 2301,
      "Ġbbaa": 2302,
      "DAc": 2303,
      "GCc": 2304,
      "EcEc": 2305,
      "Tri": 2306,
      "cdd": 2307,
      "rr": 2308,
      "tp": 2309,
      "lead": 2310,
      "CEGA": 2311,
      "FDd": 2312,
      "FfD": 2313,
      "Ġfede": 2314,
      "==": 2315,
      "ABc": 2316,
      "CDD": 2317,
      "No": 2318,
      "cBG": 2319,
      "hat": 2320,
      "ix": 2321,
      "se": 2322,
      "ĠAcea": 2323,
      "ĠBg": 2324,
      "ĠCh": 2325,
      "ĠEBF": 2326,
      "Ġggc": 2327,
      "Ġgfe": 2328,
      "FAf": 2329,
      "206": 2330,
      "207": 2331,
      "eed": 2332,
      "FGC": 2333,
      "Ġcdef": 2334,
      "Clav": 2335,
      "Bassoon": 2336,
      "oki": 2337,
      "Eeg": 2338,
      "FGF": 2339,
      "RU": 2340,
      "gcG": 2341,
      "lunar": 2342,
      "ĠAcAc": 2343,
      "''][^": 2344,
      "AAF": 2345,
      "ccG": 2346,
      "FFf": 2347,
      "ddG": 2348,
      ",,,/_": 2349,
      "cfA": 2350,
      "geE": 2351,
      "iang": 2352,
      "Ġgaga": 2353,
      "Ġgfed": 2354,
      "ĠgdBG": 2355,
      "Ġfgab": 2356,
      "!\"": 2357,
      "DdA": 2358,
      "EEB": 2359,
      "GGE": 2360,
      "gdA": 2361,
      "gbg": 2362,
      "sh": 2363,
      "ĠGBd": 2364,
      "244": 2365,
      "AAG": 2366,
      "tro": 2367,
      "fdG": 2368,
      "EFc": 2369,
      "cda": 2370,
      "']/[^": 2371,
      "Stand": 2372,
      "ance": 2373,
      "all": 2374,
      "Accordion": 2375,
      "Celesta": 2376,
      "DEB": 2377,
      "ded": 2378,
      "Ġeff": 2379,
      "ggd": 2380,
      "ĠEDCB": 2381,
      "Triang": 2382,
      "ABd": 2383,
      "Fff": 2384,
      "bdB": 2385,
      "dAA": 2386,
      "oc": 2387,
      "ĠcEBE": 2388,
      "Ġafdf": 2389,
      "EGEG": 2390,
      "GBF": 2391,
      "230": 2392,
      "fdc": 2393,
      "Contra": 2394,
      "azu": 2395,
      "Standard": 2396,
      "CFD": 2397,
      "CCF": 2398,
      "Ffa": 2399,
      "fbd": 2400,
      "oh": 2401,
      "=\"-\"": 2402,
      "Ġguitar": 2403,
      "ĠaecB": 2404,
      "egd": 2405,
      "ddB": 2406,
      "arm": 2407,
      "']/[_": 2408,
      "Cello": 2409,
      "Snare": 2410,
      "ADD": 2411,
      "BgG": 2412,
      "FCE": 2413,
      "FGG": 2414,
      "GeE": 2415,
      "cgb": 2416,
      "eEG": 2417,
      "ĠMusic": 2418,
      "ĠFCA": 2419,
      "Ġefe": 2420,
      "']=": 2421,
      "EGAc": 2422,
      "''][_": 2423,
      "rac": 2424,
      "CCD": 2425,
      "eeea": 2426,
      "BAGF": 2427,
      "EDCB": 2428,
      "eBE": 2429,
      "Ġede": 2430,
      "igh": 2431,
      "ish": 2432,
      "BBG": 2433,
      "EDD": 2434,
      "ĠCEG": 2435,
      "ĠCGG": 2436,
      "EGcG": 2437,
      "FDAD": 2438,
      "209": 2439,
      "BASS": 2440,
      "cGCG": 2441,
      "merged": 2442,
      "ylon": 2443,
      "//": 2444,
      "://": 2445,
      "Bar": 2446,
      "EFD": 2447,
      "Low": 2448,
      "aaA": 2449,
      "cGA": 2450,
      "gBe": 2451,
      "me": 2452,
      "ĠEAE": 2453,
      ",,/(": 2454,
      "193": 2455,
      "Bdbd": 2456,
      "EEe": 2457,
      "fdF": 2458,
      "ĠGAGA": 2459,
      "FfA": 2460,
      "ĠEDC": 2461,
      "http": 2462,
      "BFF": 2463,
      "DCF": 2464,
      "Hi": 2465,
      "CEFA": 2466,
      "FAdD": 2467,
      "181": 2468,
      "EED": 2469,
      "Acd": 2470,
      "ert": 2471,
      "gfed": 2472,
      "Ġfgfg": 2473,
      "ymba": 2474,
      "Triangle": 2475,
      "DBB": 2476,
      "GDF": 2477,
      "cac": 2478,
      "feB": 2479,
      "gDB": 2480,
      "Ġw": 2481,
      "ĠGEB": 2482,
      "ĠBcB": 2483,
      "ĠEGA": 2484,
      ",,,]/-": 2485,
      "FAG": 2486,
      "DFC": 2487,
      "'''^": 2488,
      "BBe": 2489,
      "DAG": 2490,
      "GAD": 2491,
      "EeG": 2492,
      "ĠffFF": 2493,
      "ĠMar": 2494,
      "Contrabass": 2495,
      "AGE": 2496,
      "AGF": 2497,
      "Gfc": 2498,
      "Steel": 2499,
      "eDA": 2500,
      "fBd": 2501,
      "ĠAde": 2502,
      "ĠDCD": 2503,
      "ĠDEFG": 2504,
      "Ġggg": 2505,
      ",/[^": 2506,
      "ĠafdA": 2507,
      "Ġaeae": 2508,
      "cAa": 2509,
      "DAB": 2510,
      "EFE": 2511,
      "AFE": 2512,
      "itz": 2513,
      "{/[_": 2514,
      "Ġfdfd": 2515,
      "ular": 2516,
      "arris": 2517,
      "AEB": 2518,
      "Add": 2519,
      "Can": 2520,
      "ECEC": 2521,
      "GAA": 2522,
      "cGD": 2523,
      "dGD": 2524,
      "eCE": 2525,
      "harris": 2526,
      "ts": 2527,
      "Ġin": 2528,
      "ĠABA": 2529,
      "ĠAFC": 2530,
      "ĠcAF": 2531,
      "Ġdfdf": 2532,
      "ĠedB": 2533,
      "CECE": 2534,
      "FAe": 2535,
      "BGe": 2536,
      "187": 2537,
      ",,]/=": 2538,
      "ccF": 2539,
      "cccc": 2540,
      "Acac": 2541,
      "ega": 2542,
      "eAB": 2543,
      "CEGCEG": 2544,
      "Ġccgg": 2545,
      "dave": 2546,
      "Sawtooth": 2547,
      "daveharris": 2548,
      "Afc": 2549,
      "CCA": 2550,
      "Fcd": 2551,
      "RI": 2552,
      "age": 2553,
      "bgf": 2554,
      "dad": 2555,
      "eEC": 2556,
      "fef": 2557,
      "ĠABAG": 2558,
      "ĠBdg": 2559,
      "Ġagfe": 2560,
      "lef": 2561,
      "194": 2562,
      "195": 2563,
      "CGF": 2564,
      "FGd": 2565,
      "dBD": 2566,
      "gdGA": 2567,
      "bgdB": 2568,
      "CFAF": 2569,
      "Stage": 2570,
      "orld": 2571,
      "thony": 2572,
      "ions": 2573,
      "equenced": 2574,
      "attle": 2575,
      "Main": 2576,
      "ĠĠĠĠĠĠĠĠĠĠĠĠĠĠĠĠĠĠĠĠĠĠĠĠĠĠĠĠĠĠĠĠĠĠĠĠĠĠĠĠĠĠĠĠĠĠĠĠĠĠĠĠĠĠĠĠĠĠĠĠĠĠĠĠĠĠĠĠĠĠĠĠĠĠĠĠĠĠĠĠĠĠĠĠĠĠĠĠĠĠĠĠĠĠĠĠĠĠĠĠĠĠĠĠĠĠĠĠĠĠĠĠĠĠĠĠĠĠĠĠĠĠĠĠĠĠĠĠ": 2577,
      "212": 2578,
      "XG": 2579,
      "ece": 2580,
      "gBd": 2581,
      "gfd": 2582,
      "Ġ18": 2583,
      ",]<": 2584,
      "ĠdBGD": 2585,
      "Ġece": 2586,
      "ĠgA": 2587,
      "cAFF": 2588,
      "EAce": 2589,
      "ddDD": 2590,
      "BDd": 2591,
      "EBd": 2592,
      "LO": 2593,
      "Xylo": 2594,
      "azz": 2595,
      "cCE": 2596,
      "cge": 2597,
      "fcG": 2598,
      "lon": 2599,
      "Ġ0": 2600,
      ",,,,,^": 2601,
      "ĠAcc": 2602,
      "ĠEGE": 2603,
      "ĠcGED": 2604,
      "Ġdfd": 2605,
      "GBdg": 2606,
      "DFGB": 2607,
      "ink": 2608,
      "dfF": 2609,
      "Aac": 2610,
      "GeC": 2611,
      "DGBG": 2612,
      "gBg": 2613,
      "ĠTa": 2614,
      "drums": 2615,
      "RUM": 2616,
      "665": 2617,
      "CcA": 2618,
      "EFF": 2619,
      "FcC": 2620,
      "]>[=": 2621,
      "efa": 2622,
      "gBE": 2623,
      "ke": 2624,
      "li": 2625,
      "ĠCymba": 2626,
      "ĠEcho": 2627,
      "ĠecAE": 2628,
      "ĠaAAA": 2629,
      "EAG": 2630,
      "188": 2631,
      "FBFB": 2632,
      "BcG": 2633,
      "cGg": 2634,
      "bbaa": 2635,
      "DFAD": 2636,
      "Ġbagd": 2637,
      "ĠAdv": 2638,
      "ĠMor": 2639,
      "Ġadfg": 2640,
      "'[=": 2641,
      "By": 2642,
      "EeA": 2643,
      "cFG": 2644,
      "dGE": 2645,
      "dbd": 2646,
      "Ġ\"": 2647,
      "ĠGFG": 2648,
      "ĠAECB": 2649,
      "ĠFf": 2650,
      "ĠdcA": 2651,
      "213": 2652,
      "''-": 2653,
      "GGcc": 2654,
      "DADA": 2655,
      "BAE": 2656,
      "anthony": 2657,
      "Ġgag": 2658,
      "chere": 2659,
      "ĠMelody": 2660,
      "ords": 2661,
      "ĠDrums": 2662,
      "icato": 2663,
      "bouchere": 2664,
      "bouchereau": 2665,
      "ADB": 2666,
      "AdB": 2667,
      "BCF": 2668,
      "Ro": 2669,
      "Se": 2670,
      "gcc": 2671,
      "ure": 2672,
      "Ġh": 2673,
      ",,<_": 2674,
      ",,]<[": 2675,
      "ĠDCA": 2676,
      "ĠBr": 2677,
      "ĠEFE": 2678,
      "FADD": 2679,
      "cAFC": 2680,
      "AAB": 2681,
      "235": 2682,
      "gac": 2683,
      "dBE": 2684,
      "Aaa": 2685,
      "DDF": 2686,
      "Gdf": 2687,
      "bular": 2688,
      "cBc": 2689,
      "fFA": 2690,
      "ie": 2691,
      "iz": 2692,
      "Ġ:": 2693,
      "ĠAoki": 2694,
      "ĠCEcC": 2695,
      "ĠEcCc": 2696,
      "EGBc": 2697,
      "ine": 2698,
      ",-]/": 2699,
      "dddd": 2700,
      "ĠdcBG": 2701,
      "Ġffcc": 2702,
      "Ġaaga": 2703,
      "ĠLunar": 2704,
      "ikazu": 2705,
      "NES": 2706,
      "ĠMorikazu": 2707,
      "AEE": 2708,
      "Gmin": 2709,
      "eeg": 2710,
      "gCG": 2711,
      ",]>_": 2712,
      "ĠdBF": 2713,
      "FAa": 2714,
      "CAD": 2715,
      "cAEA": 2716,
      "EAF": 2717,
      "AAE": 2718,
      "202": 2719,
      "237": 2720,
      "AcD": 2721,
      "geC": 2722,
      "ĠBcdB": 2723,
      "ĠcBAB": 2724,
      "ĠdEBd": 2725,
      "ABA": 2726,
      "BR": 2727,
      "BGBG": 2728,
      "Back": 2729,
      "DdB": 2730,
      "EEGG": 2731,
      "afa": 2732,
      "aeA": 2733,
      "bfB": 2734,
      "cBd": 2735,
      "cDA": 2736,
      "gGB": 2737,
      "ist": 2738,
      "Ġp": 2739,
      "ĠGED": 2740,
      "Ġfef": 2741,
      ",,/[=": 2742,
      "183": 2743,
      "''][=": 2744,
      "ddA": 2745,
      "edB": 2746,
      "aAa": 2747,
      "CcE": 2748,
      "ĠBells": 2749,
      "GDGD": 2750,
      "Tubular": 2751,
      "Xylophone": 2752,
      "AECG": 2753,
      "BAA": 2754,
      "BeE": 2755,
      "FEC": 2756,
      "FFAA": 2757,
      "Ggg": 2758,
      "ay": 2759,
      "eBF": 2760,
      "fDA": 2761,
      "fcfc": 2762,
      "ĠVoice": 2763,
      "ĠFGcd": 2764,
      "ĠcBcB": 2765,
      "CAC": 2766,
      "GEe": 2767,
      "DGC": 2768,
      "186": 2769,
      "EBA": 2770,
      "ccD": 2771,
      ",,,/[": 2772,
      "edD": 2773,
      "eAe": 2774,
      "ADC": 2775,
      "tare": 2776,
      "DGBd": 2777,
      "anjo": 2778,
      "Ġbagf": 2779,
      "ĠAdef": 2780,
      "ĠMan": 2781,
      "ise": 2782,
      "lap": 2783,
      "uitare": 2784,
      "Pizzicato": 2785,
      "-=": 2786,
      "BDA": 2787,
      "eAF": 2788,
      "fbB": 2789,
      "vo": 2790,
      "ĠGceg": 2791,
      "ĠDGBd": 2792,
      "ĠFEDC": 2793,
      "218": 2794,
      "EGg": 2795,
      "EGBE": 2796,
      "egf": 2797,
      "FcE": 2798,
      "cag": 2799,
      "obert": 2800,
      "ACC": 2801,
      "GCB": 2802,
      "]{/": 2803,
      "aw": 2804,
      "cff": 2805,
      "od": 2806,
      "ris": 2807,
      "ĠFFAA": 2808,
      "Ġage": 2809,
      "GBcB": 2810,
      "245": 2811,
      "cegc": 2812,
      "DBE": 2813,
      "239": 2814,
      "FFG": 2815,
      "ted": 2816,
      "ecd": 2817,
      "CcF": 2818,
      "eGe": 2819,
      "cae": 2820,
      "ĠdBGB": 2821,
      "ĠHarp": 2822,
      "ĠThe": 2823,
      "ĠABcg": 2824,
      "ĠIII": 2825,
      "Canal": 2826,
      "<[=": 2827,
      "BFA": 2828,
      "It": 2829,
      "daA": 2830,
      "eGG": 2831,
      "eEc": 2832,
      "strings": 2833,
      "tor": 2834,
      "yth": 2835,
      "Ġgcg": 2836,
      ",/(": 2837,
      "211": 2838,
      "191": 2839,
      "BGDA": 2840,
      "GECad": 2841,
      "ĠSu": 2842,
      "ĠSoft": 2843,
      "Violon": 2844,
      "BCE": 2845,
      "Ecc": 2846,
      "Sm": 2847,
      "gDA": 2848,
      "ĠFGAB": 2849,
      "Ġaad": 2850,
      "201": 2851,
      "AFCA": 2852,
      "cBE": 2853,
      "gfcc": 2854,
      "ĠGABd": 2855,
      "fca": 2856,
      "ĠCDEF": 2857,
      "ania": 2858,
      "AFDD": 2859,
      "iko": 2860,
      "arry": 2861,
      "ON": 2862,
      "cre": 2863,
      "eCG": 2864,
      "pr": 2865,
      "um": 2866,
      "ĠAce": 2867,
      "ĠFEFG": 2868,
      "Ġfor": 2869,
      "Ġaaa": 2870,
      "Ġto": 2871,
      "BGg": 2872,
      "DDE": 2873,
      "AcB": 2874,
      "egE": 2875,
      "ddF": 2876,
      "FGD": 2877,
      "fge": 2878,
      "Echo": 2879,
      "dBg": 2880,
      "Bbmin": 2881,
      "ĠEFGA": 2882,
      "ĠIn": 2883,
      "----------------": 2884,
      "ylor": 2885,
      "ĠTaylor": 2886,
      "Violonce": 2887,
      ",>[": 2888,
      "Kal": 2889,
      "aga": 2890,
      "eBB": 2891,
      "eGg": 2892,
      "from": 2893,
      "gdD": 2894,
      "Ġ20": 2895,
      "ĠDEG": 2896,
      "ĠCFA": 2897,
      "ĠdBG": 2898,
      "Ġefga": 2899,
      "Ġecho": 2900,
      "Ġgfg": 2901,
      "rem": 2902,
      "BBA": 2903,
      "BBE": 2904,
      "FBf": 2905,
      "egC": 2906,
      "BAF": 2907,
      "ffA": 2908,
      "faD": 2909,
      "gad": 2910,
      "DdF": 2911,
      "Ġefed": 2912,
      "ower": 2913,
      "Clavichord": 2914,
      "ythm": 2915,
      "/<": 2916,
      "Aec": 2917,
      "Banjo": 2918,
      "GCD": 2919,
      "Tab": 2920,
      "cCGC": 2921,
      "dgd": 2922,
      "fec": 2923,
      "fFf": 2924,
      "oto": 2925,
      "ĠGcde": 2926,
      "ĠDGD": 2927,
      "ĠBGDB": 2928,
      "GBf": 2929,
      "DGF": 2930,
      "''[": 2931,
      ",,]/_": 2932,
      "CCc": 2933,
      "EBC": 2934,
      "EEF": 2935,
      "fab": 2936,
      "gga": 2937,
      "BFE": 2938,
      "BDE": 2939,
      "ADE": 2940,
      "FcD": 2941,
      "ĠCGEG": 2942,
      "cDc": 2943,
      "Pick": 2944,
      "Violoncello": 2945,
      "TabIt": 2946,
      "AEG": 2947,
      "AdAd": 2948,
      "Bo": 2949,
      "FX": 2950,
      "GFDB": 2951,
      "In": 2952,
      "Nylon": 2953,
      "eGA": 2954,
      "gEG": 2955,
      "ly": 2956,
      "{/=": 2957,
      "ĠAcA": 2958,
      "ĠABcB": 2959,
      "ĠCCB": 2960,
      "ĠCcCc": 2961,
      "ĠFGFG": 2962,
      "BBee": 2963,
      "DBA": 2964,
      "egEG": 2965,
      "eeG": 2966,
      "BAFD": 2967,
      "faF": 2968,
      "ggf": 2969,
      "efef": 2970,
      "its": 2971,
      "des": 2972,
      "ĠSec": 2973,
      "ĠSynth": 2974,
      "Voca": 2975,
      "Quest": 2976,
      "Orchestral": 2977,
      "BgB": 2978,
      "Barry": 2979,
      "Dad": 2980,
      "EDF": 2981,
      "FEG": 2982,
      "Fmin": 2983,
      "Ggd": 2984,
      "Sound": 2985,
      "Ta": 2986,
      "]>_": 2987,
      "bgG": 2988,
      "cCD": 2989,
      "cECG": 2990,
      "fEB": 2991,
      "gcA": 2992,
      "ĠU": 2993,
      ",,,,-": 2994,
      ",]<[": 2995,
      "ĠCFG": 2996,
      "Ġfdf": 2997,
      "FAFA": 2998,
      "FAde": 2999,
      "EAcA": 3000,
      "inge": 3001,
      "189": 3002,
      "rash": 3003,
      "GGg": 3004,
      "CCB": 3005,
      "DBD": 3006,
      "ĠBAGD": 3007,
      "Gdc": 3008,
      "eat": 3009,
      ",>=": 3010,
      "ĠdABc": 3011,
      "Ġefec": 3012,
      "artMusic": 3013,
      "BRT": 3014,
      "ĠSoftSynth": 3015,
      "SmartMusic": 3016,
      "Fdd": 3017,
      "GdD": 3018,
      "Jazz": 3019,
      "Treble": 3020,
      "acf": 3021,
      "bfg": 3022,
      "cGF": 3023,
      "dBd": 3024,
      "dgG": 3025,
      "eBA": 3026,
      "fAA": 3027,
      "ut": 3028,
      "ĠGEG": 3029,
      "ĠABdA": 3030,
      "ĠDCDE": 3031,
      "ĠBdAB": 3032,
      "Ġdedc": 3033,
      "ĠeBcB": 3034,
      "Ġfgf": 3035,
      "BdE": 3036,
      "205": 3037,
      "ebB": 3038,
      "GcD": 3039,
      "GcGc": 3040,
      "ddc": 3041,
      "faE": 3042,
      "BcE": 3043,
      "GdE": 3044,
      "bgfd": 3045,
      "ĠBcBA": 3046,
      "DGBDGB": 3047,
      "ĠGEBG": 3048,
      "ĠdABd": 3049,
      "ĠfdFD": 3050,
      "ĠSe": 3051,
      "ĠPad": 3052,
      "idi": 3053,
      "gfccGFC": 3054,
      "/{/[^": 3055,
      "AFB": 3056,
      "ADd": 3057,
      "Bcc": 3058,
      "Bmin": 3059,
      "CeA": 3060,
      "DbE": 3061,
      "EFAc": 3062,
      "OR": 3063,
      "Pad": 3064,
      "Slap": 3065,
      "bGB": 3066,
      "ber": 3067,
      "go": 3068,
      "hythm": 3069,
      "ĠAECA": 3070,
      "ĠBb": 3071,
      "ĠBattle": 3072,
      "ĠFEC": 3073,
      "Ġgec": 3074,
      "Ġgedc": 3075,
      "FAcF": 3076,
      "DGDG": 3077,
      "BGDD": 3078,
      "BBD": 3079,
      "EFC": 3080,
      "eeA": 3081,
      "BAd": 3082,
      "CEGce": 3083,
      "Aad": 3084,
      "baf": 3085,
      "eag": 3086,
      "ĠcBcd": 3087,
      "ason": 3088,
      "DdDGDdDG": 3089,
      "ĠBrass": 3090,
      "ingered": 3091,
      "221": 3092,
      "Bef": 3093,
      "BeBe": 3094,
      "Grand": 3095,
      "Kick": 3096,
      "SNES": 3097,
      "ace": 3098,
      "bBA": 3099,
      "dcA": 3100,
      "gGE": 3101,
      "shi": 3102,
      ",,,<": 3103,
      "ĠAEG": 3104,
      "ĠCFC": 3105,
      "ĠECEG": 3106,
      "Ġch": 3107,
      "GBb": 3108,
      "GBdf": 3109,
      "'''']": 3110,
      "ran": 3111,
      "ffC": 3112,
      "cdA": 3113,
      "ĠAABB": 3114,
      "dfD": 3115,
      "DdG": 3116,
      "bdg": 3117,
      "GgB": 3118,
      "GgE": 3119,
      "ĠSet": 3120,
      "Ġdgfg": 3121,
      "att": 3122,
      "ĠJoh": 3123,
      "ĠOrac": 3124,
      "000": 3125,
      "********": 3126,
      "creen": 3127,
      "ĠOracle": 3128,
      "Afd": 3129,
      "AfF": 3130,
      "CCEE": 3131,
      "High": 3132,
      "aff": 3133,
      "eve": 3134,
      "fcf": 3135,
      "fFc": 3136,
      "ffdd": 3137,
      "gDF": 3138,
      "ite": 3139,
      "lu": 3140,
      "right": 3141,
      "yo": 3142,
      "ĠGBG": 3143,
      "ĠEGAB": 3144,
      "ĠFGAG": 3145,
      "ĠecG": 3146,
      "ĠgecG": 3147,
      "ree": 3148,
      "assic": 3149,
      "DFf": 3150,
      "''''^": 3151,
      "ceB": 3152,
      "ceaA": 3153,
      ",]/(": 3154,
      "ecGC": 3155,
      "ĠAAdd": 3156,
      "gdBG": 3157,
      "Ġcgfg": 3158,
      "Shan": 3159,
      "Castle": 3160,
      "ACD": 3161,
      "Afa": 3162,
      "AfA": 3163,
      "CcB": 3164,
      "Fdf": 3165,
      "GEGE": 3166,
      "Robert": 3167,
      "Wil": 3168,
      "Woo": 3169,
      "]\"": 3170,
      "cED": 3171,
      "cgG": 3172,
      "eCA": 3173,
      "eEAc": 3174,
      "uk": 3175,
      "ĠADGD": 3176,
      "ĠACFC": 3177,
      "ĠAfcd": 3178,
      "ĠDFAd": 3179,
      "ĠBGE": 3180,
      "=\"*": 3181,
      "Ġfec": 3182,
      "use": 3183,
      "AAa": 3184,
      "CDEG": 3185,
      "edC": 3186,
      "FECA": 3187,
      "dBb": 3188,
      "bbd": 3189,
      "BeG": 3190,
      "bgb": 3191,
      "ade": 3192,
      "Ġbgbg": 3193,
      "ĠNo": 3194,
      "Picked": 3195,
      ">\"": 3196,
      "BEE": 3197,
      "Bbb": 3198,
      "Cce": 3199,
      "DCE": 3200,
      "Dist": 3201,
      "bgg": 3202,
      "fFD": 3203,
      "fFC": 3204,
      "ĠDAB": 3205,
      "Ġffg": 3206,
      "DFE": 3207,
      "BGFD": 3208,
      "ling": 3209,
      "aken": 3210,
      "AcC": 3211,
      ",,-]/": 3212,
      "CBF": 3213,
      "ĠĠĠ": 3214,
      "aron": 3215,
      "EeC": 3216,
      "DGBg": 3217,
      "ort": 3218,
      "Ġbab": 3219,
      "Gceg": 3220,
      "illa": 3221,
      "']/[=": 3222,
      "Cymba": 3223,
      "Untitled": 3224,
      "www": 3225,
      "ĠMario": 3226,
      "Apr": 3227,
      "BGEB": 3228,
      "afF": 3229,
      "cEB": 3230,
      "dBGD": 3231,
      "emp": 3232,
      "eCc": 3233,
      "fcC": 3234,
      "fAa": 3235,
      "ti": 3236,
      "ĠAcf": 3237,
      "ĠAge": 3238,
      "ĠAaron": 3239,
      "ĠDe": 3240,
      "ĠCCF": 3241,
      "ĠClef": 3242,
      "ĠEEAA": 3243,
      "ĠEason": 3244,
      "ĠFfc": 3245,
      "ĠFfcd": 3246,
      "ĠfdAd": 3247,
      ",/[_": 3248,
      "len": 3249,
      "Bde": 3250,
      "ccfgc": 3251,
      "enture": 3252,
      "ers": 3253,
      "ĠBAGF": 3254,
      "fcD": 3255,
      "bgB": 3256,
      "ĠEEFF": 3257,
      "fAC": 3258,
      "ĠEGEG": 3259,
      "aaaa": 3260,
      "ĠWorld": 3261,
      "Shk": 3262,
      "lay": 3263,
      "ĠCFGccfgc": 3264,
      "/>_": 3265,
      "AGD": 3266,
      "BfF": 3267,
      "Eec": 3268,
      "Rhythm": 3269,
      "TR": 3270,
      "]<^": 3271,
      "ast": 3272,
      "efd": 3273,
      "gGD": 3274,
      "ji": 3275,
      "vas": 3276,
      "ĠAGFG": 3277,
      "ĠAdAd": 3278,
      "ĠDED": 3279,
      "ĠCa": 3280,
      "ĠEGB": 3281,
      "Ġcegc": 3282,
      "cAFD": 3283,
      "BGc": 3284,
      "Bdc": 3285,
      "Bdfd": 3286,
      "GGF": 3287,
      "EBb": 3288,
      "FBA": 3289,
      "ecGECad": 3290,
      "ffff": 3291,
      "BFc": 3292,
      "ĠAAcc": 3293,
      "BDC": 3294,
      "ĠcdcB": 3295,
      "Ggb": 3296,
      "cFCA": 3297,
      "onk": 3298,
      "ĠEDEF": 3299,
      "ĠBdga": 3300,
      "ĠEBeB": 3301,
      ",,,]/[^": 3302,
      "Bright": 3303,
      "histle": 3304,
      "Engl": 3305,
      "out": 3306,
      "ĠSection": 3307,
      "evel": 3308,
      "Willow": 3309,
      "#]": 3310,
      "216": 3311,
      "Aee": 3312,
      "Cbb": 3313,
      "aCA": 3314,
      "bee": 3315,
      "cl": 3316,
      "cFD": 3317,
      "cDG": 3318,
      "def": 3319,
      "fBB": 3320,
      "feE": 3321,
      "gGBd": 3322,
      "ven": 3323,
      "Ġ--": 3324,
      "Ġ|{/": 3325,
      ",,]>=": 3326,
      "ĠAFA": 3327,
      "ĠEg": 3328,
      "ĠEDA": 3329,
      "ĠEfC": 3330,
      "ĠEGBe": 3331,
      "Ġcefc": 3332,
      "Ġeegg": 3333,
      "cegA": 3334,
      "GGA": 3335,
      "CGe": 3336,
      "DDC": 3337,
      "aka": 3338,
      "'/<": 3339,
      "fafa": 3340,
      "fgd": 3341,
      "BFf": 3342,
      "eAD": 3343,
      "DEFA": 3344,
      "Aae": 3345,
      "ost": 3346,
      "Adg": 3347,
      "Ġcdcd": 3348,
      "ĠFFEE": 3349,
      "ĠfecA": 3350,
      "his": 3351,
      "ats": 3352,
      "verd": 3353,
      "ĠAahs": 3354,
      "Taiko": 3355,
      "AGG": 3356,
      "BGEC": 3357,
      "Mute": 3358,
      "Sit": 3359,
      "Solo": 3360,
      "bga": 3361,
      "cEcE": 3362,
      "dBdB": 3363,
      "gEA": 3364,
      "lute": 3365,
      "vania": 3366,
      "ĠStage": 3367,
      ",,,[=": 3368,
      "ĠBGEB": 3369,
      "ĠcGc": 3370,
      "Ġdb": 3371,
      "ĠdDDD": 3372,
      "FAce": 3373,
      "EGCC": 3374,
      "ramail": 3375,
      "EBce": 3376,
      "ccB": 3377,
      "ments": 3378,
      "egA": 3379,
      "ffa": 3380,
      "faBd": 3381,
      "fgfg": 3382,
      "AFCD": 3383,
      "gaa": 3384,
      "fcF": 3385,
      "cECA": 3386,
      "Ġedcd": 3387,
      "ĠdcBc": 3388,
      "orns": 3389,
      "{/[=": 3390,
      "caramail": 3391,
      "ĠScreen": 3392,
      "ĠLand": 3393,
      "round": 3394,
      "urch": 3395,
      "English": 3396,
      "verdri": 3397,
      "225": 3398,
      "Crash": 3399,
      "DddD": 3400,
      "Edd": 3401,
      "GCEG": 3402,
      "GfF": 3403,
      "GaAD": 3404,
      "aba": 3405,
      "dEB": 3406,
      "eFd": 3407,
      "gm": 3408,
      "ide": 3409,
      "oy": 3410,
      "up": 3411,
      "Ġout": 3412,
      "ĠGBc": 3413,
      "ĠAFDF": 3414,
      "ĠFfF": 3415,
      "ĠdDDd": 3416,
      "Ġbgd": 3417,
      "ĠaB": 3418,
      "CAEA": 3419,
      "CFf": 3420,
      "EAEA": 3421,
      "Bda": 3422,
      "cece": 3423,
      "line": 3424,
      "fdfd": 3425,
      "CDEDCB": 3426,
      "dAf": 3427,
      "aAC": 3428,
      "dfA": 3429,
      "Bbe": 3430,
      "ĠDDdD": 3431,
      "ĠAcEB": 3432,
      "Ġgagf": 3433,
      "ĠDBGB": 3434,
      "ĠbbBB": 3435,
      "ynt": 3436,
      "DGDGE": 3437,
      "ĠRight": 3438,
      "001": 3439,
      "ĠBoss": 3440,
      "ABG": 3441,
      "AED": 3442,
      "AeA": 3443,
      "BaA": 3444,
      "DCG": 3445,
      "FGAB": 3446,
      "Fingered": 3447,
      "Ital": 3448,
      "acc": 3449,
      "eaAD": 3450,
      "fDD": 3451,
      "gDG": 3452,
      "ile": 3453,
      "son": 3454,
      "zo": 3455,
      "ĠSa": 3456,
      ",,,,,][": 3457,
      "ĠAGFC": 3458,
      "Ġagfc": 3459,
      ",,,]>[": 3460,
      "Ġsynt": 3461,
      "FADC": 3462,
      "FDBB": 3463,
      "CCDD": 3464,
      "DBF": 3465,
      "ccg": 3466,
      "228": 3467,
      "ragon": 3468,
      "'/(": 3469,
      "GAE": 3470,
      "eeB": 3471,
      "eeC": 3472,
      "BAGFE": 3473,
      "ddC": 3474,
      "faa": 3475,
      "CBE": 3476,
      "dDC": 3477,
      "dfC": 3478,
      "ĠBABA": 3479,
      "bbc": 3480,
      "GgD": 3481,
      "GgF": 3482,
      "ada": 3483,
      ",,,-^": 3484,
      "iolin": 3485,
      "ecAc": 3486,
      "ime": 3487,
      "gggggggg": 3488,
      "Harmon": 3489,
      "Noise": 3490,
      "Italian": 3491,
      "232": 3492,
      "BBd": 3493,
      "Bge": 3494,
      "BFDB": 3495,
      "BaAD": 3496,
      "EeB": 3497,
      "FEE": 3498,
      "Trem": 3499,
      "dFF": 3500,
      "dgdg": 3501,
      "ecec": 3502,
      "ground": 3503,
      "ny": 3504,
      "ons": 3505,
      "}[_": 3506,
      "Ġno": 3507,
      ",,,>[": 3508,
      "ĠGECG": 3509,
      "ĠGBdg": 3510,
      "ĠDdD": 3511,
      "ĠDeee": 3512,
      "ĠBa": 3513,
      "ĠBeee": 3514,
      "ĠCEF": 3515,
      "ĠColo": 3516,
      "ĠEAc": 3517,
      "ĠFcdf": 3518,
      "ĠcCGc": 3519,
      "Ġdeg": 3520,
      "ĠfcAc": 3521,
      "ĠaecA": 3522,
      "CEg": 3523,
      "217": 3524,
      "EGBd": 3525,
      "GEg": 3526,
      "ECCA": 3527,
      "rang": 3528,
      "GGc": 3529,
      "edA": 3530,
      "ĠAAa": 3531,
      "dADA": 3532,
      "cGDG": 3533,
      "ary": 3534,
      "dfG": 3535,
      "Adc": 3536,
      "gbEE": 3537,
      "Ġdefd": 3538,
      "ach": 3539,
      "ĠGBGB": 3540,
      "ĠMa": 3541,
      "ĠADFD": 3542,
      "omments": 3543,
      "hodes": 3544,
      "dblock": 3545,
      "Super": 3546,
      "====": 3547,
      "armony": 3548,
      "ĠColor": 3549,
      "At": 3550,
      "Bff": 3551,
      "BCc": 3552,
      "Eeb": 3553,
      "ME": 3554,
      "Sw": 3555,
      "aea": 3556,
      "cFB": 3557,
      "dfad": 3558,
      "eCC": 3559,
      "fDB": 3560,
      "ogo": 3561,
      "ug": 3562,
      "ĠString": 3563,
      ",,{/": 3564,
      "ĠAg": 3565,
      "ĠEEA": 3566,
      "ĠccB": 3567,
      "ĠcCEG": 3568,
      "=\"--": 3569,
      "']>[=": 3570,
      "CEGE": 3571,
      "204": 3572,
      "292": 3573,
      "egend": 3574,
      "384": 3575,
      "ffgc": 3576,
      "gdC": 3577,
      "bagd": 3578,
      "FfC": 3579,
      "ĠEDCD": 3580,
      "DFAC": 3581,
      "Ġeedd": 3582,
      "ĠAcfa": 3583,
      "ĠAcfg": 3584,
      "ĠEABc": 3585,
      "ĠcAEC": 3586,
      "emix": 3587,
      "rrrr": 3588,
      "Rock": 3589,
      "Bed": 3590,
      "Bgb": 3591,
      "BDFB": 3592,
      "CK": 3593,
      "DRUM": 3594,
      "EL": 3595,
      "Gdd": 3596,
      "Overdri": 3597,
      "Slow": 3598,
      "Whistle": 3599,
      "aDF": 3600,
      "cBB": 3601,
      "cEc": 3602,
      "caf": 3603,
      "gee": 3604,
      "guitare": 3605,
      "harp": 3606,
      "ore": 3607,
      "ue": 3608,
      "Ġ<": 3609,
      "Ġ21": 3610,
      ",,]>[^": 3611,
      "ĠCDF": 3612,
      "ĠCan": 3613,
      "ĠCEGB": 3614,
      "ĠFEDE": 3615,
      "Ġegc": 3616,
      "Ġeae": 3617,
      ",/<": 3618,
      ",/>^": 3619,
      "Ġafaf": 3620,
      "CEce": 3621,
      "Ġstrings": 3622,
      "GEDB": 3623,
      "DFg": 3624,
      "cAd": 3625,
      "cAFA": 3626,
      "cef": 3627,
      "cdD": 3628,
      "cdef": 3629,
      "eded": 3630,
      "fgad": 3631,
      "499": 3632,
      "ark": 3633,
      "bdG": 3634,
      ",,>=": 3635,
      "CFAFC": 3636,
      "ĠFGAc": 3637,
      "ĠEBGE": 3638,
      "BgD": 3639,
      "Chris": 3640,
      "Church": 3641,
      "ĠGDBG": 3642,
      "ĠHit": 3643,
      "ome": 3644,
      "ĠBlitz": 3645,
      "ĠJohn": 3646,
      "Shanai": 3647,
      "Sp": 3648,
      "Syn": 3649,
      "TH": 3650,
      "cDE": 3651,
      "eED": 3652,
      "fcc": 3653,
      "fcAF": 3654,
      "sequenced": 3655,
      "ĠGAc": 3656,
      "ĠAcoustic": 3657,
      "ĠDFDB": 3658,
      "ĠCEGc": 3659,
      "ĠFCF": 3660,
      "ĠeBGE": 3661,
      "Ġecec": 3662,
      "ĠfcA": 3663,
      ",,,]>": 3664,
      "']<": 3665,
      "EGF": 3666,
      "EGce": 3667,
      "BGdG": 3668,
      "''[^": 3669,
      "BBAA": 3670,
      "ceD": 3671,
      "ceb": 3672,
      "DBDB": 3673,
      "cccC": 3674,
      "xtra": 3675,
      "dfe": 3676,
      "eAC": 3677,
      "AaD": 3678,
      "eas": 3679,
      "ĠFFGG": 3680,
      "CFAD": 3681,
      "'-^": 3682,
      "EGBeg": 3683,
      "ĠTh": 3684,
      "cegeg": 3685,
      "ĠKon": 3686,
      "Quick": 3687,
      "ĠĠĠĠĠĠĠĠĠĠĠĠĠĠĠĠĠĠĠĠĠĠĠĠĠĠĠĠĠĠĠĠĠĠĠĠĠĠĠĠĠĠĠĠĠĠĠĠĠĠĠĠĠĠĠĠĠĠĠĠĠĠĠĠĠĠĠĠĠĠĠĠĠĠĠĠĠĠĠĠĠĠĠĠĠĠĠĠĠĠĠĠĠĠĠĠĠĠĠĠĠĠĠĠĠĠĠĠĠĠĠĠĠĠĠĠĠĠĠĠĠĠĠĠĠĠĠĠĠĠĠĠĠĠĠĠĠĠĠĠĠĠĠĠĠĠĠĠĠĠĠĠĠĠĠĠĠĠĠĠĠĠĠĠĠĠĠĠĠĠĠĠĠĠĠĠĠĠĠĠĠĠĠĠĠĠĠĠĠĠĠĠĠĠĠĠĠĠĠĠĠĠĠĠĠĠĠĠĠĠĠĠĠĠĠĠĠĠĠĠĠĠĠĠĠĠĠĠĠĠĠĠĠĠĠĠĠĠĠĠĠĠĠĠĠĠĠĠĠĠĠĠĠĠĠĠ": 3688,
      "liver": 3689,
      "ĠAdvance": 3690,
      "Background": 3691,
      "Questions": 3692,
      "Woodblock": 3693,
      "Aeg": 3694,
      "BeB": 3695,
      "CaA": 3696,
      "Dra": 3697,
      "Ffd": 3698,
      "GFA": 3699,
      "bff": 3700,
      "cCEG": 3701,
      "dfg": 3702,
      "dbg": 3703,
      "eff": 3704,
      "fee": 3705,
      "fAB": 3706,
      "gBB": 3707,
      "msn": 3708,
      "oun": 3709,
      "Ġon": 3710,
      "ĠDFd": 3711,
      "ĠBdB": 3712,
      "ĠBde": 3713,
      "ĠEBBB": 3714,
      "ĠEFcE": 3715,
      "ĠcEA": 3716,
      "Ġcfc": 3717,
      "ĠccAA": 3718,
      "ĠeEGE": 3719,
      "ĠgGBG": 3720,
      "GBeE": 3721,
      "CAG": 3722,
      "CAcA": 3723,
      "cAED": 3724,
      "BGf": 3725,
      "ceeg": 3726,
      "DBGB": 3727,
      "DDc": 3728,
      "ecF": 3729,
      "fdE": 3730,
      "fdAD": 3731,
      "BAGD": 3732,
      "gea": 3733,
      "ĠBAGB": 3734,
      "AaF": 3735,
      "bagf": 3736,
      "Ġeded": 3737,
      "ĠEFEC": 3738,
      "ĠeeFF": 3739,
      "ĠdBGE": 3740,
      "Ġgcad": 3741,
      "ĠTom": 3742,
      "ĠTrumpet": 3743,
      "ĠeBEB": 3744,
      "ĠeAEA": 3745,
      "Ġeaad": 3746,
      "ĠeEBd": 3747,
      "May": 3748,
      "gdgdE": 3749,
      "octal": 3750,
      "shite": 3751,
      "Cymbals": 3752,
      "Harmonica": 3753,
      "livershite": 3754,
      "'>^": 3755,
      "AFG": 3756,
      "BeA": 3757,
      "Bag": 3758,
      "DeE": 3759,
      "FL": 3760,
      "Fcc": 3761,
      "GS": 3762,
      "Rhodes": 3763,
      "bgc": 3764,
      "cEF": 3765,
      "cBAG": 3766,
      "dEG": 3767,
      "dFd": 3768,
      "ffd": 3769,
      "flute": 3770,
      "guitar": 3771,
      "ry": 3772,
      "ud": 3773,
      "ura": 3774,
      "Ġ*": 3775,
      "Ġor": 3776,
      "ĠGcG": 3777,
      "ĠDFG": 3778,
      "ĠCEC": 3779,
      "ĠComposer": 3780,
      "ĠcGEC": 3781,
      "Ġdec": 3782,
      "Ġefd": 3783,
      "ĠeBe": 3784,
      "Ġgdg": 3785,
      "CEGG": 3786,
      "Ġsound": 3787,
      "GBC": 3788,
      "GBDG": 3789,
      "GEF": 3790,
      "DGg": 3791,
      "BdC": 3792,
      "BdgG": 3793,
      "EBc": 3794,
      "EEDD": 3795,
      "FBC": 3796,
      "305": 3797,
      "egB": 3798,
      "cdG": 3799,
      "cdcd": 3800,
      "GDd": 3801,
      "gaga": 3802,
      "AEe": 3803,
      "bafd": 3804,
      "Ggcc": 3805,
      "gbc": 3806,
      "bfG": 3807,
      "BgE": 3808,
      "ĠgdBd": 3809,
      "BGED": 3810,
      "emon": 3811,
      "ĠLeft": 3812,
      "ĠBox": 3813,
      "esiz": 3814,
      "Ġme": 3815,
      "ĠFAcd": 3816,
      "ĠCymbal": 3817,
      "ĠCymbals": 3818,
      "ĠAdventure": 3819,
      "Intro": 3820,
      "Ġchannel": 3821,
      "Castlevania": 3822,
      "Tremolo": 3823,
      "DRUMS": 3824,
      "ChrisK": 3825,
      "'}": 3826,
      "/>[": 3827,
      "/{/[": 3828,
      "ABe": 3829,
      "CcCc": 3830,
      "EccE": 3831,
      "GaA": 3832,
      "GeA": 3833,
      "GeG": 3834,
      "Koto": 3835,
      "TE": 3836,
      "aFA": 3837,
      "adA": 3838,
      "afA": 3839,
      "dGA": 3840,
      "fFd": 3841,
      "gGd": 3842,
      "ya": 3843,
      "ĠDave": 3844,
      "ĠBGBG": 3845,
      "ĠCd": 3846,
      "Ġceac": 3847,
      "Ġdcde": 3848,
      "ĠdAda": 3849,
      "Ġgfga": 3850,
      "ĠbBcB": 3851,
      "FAdA": 3852,
      "FAcC": 3853,
      "EGBC": 3854,
      "CACA": 3855,
      "FDc": 3856,
      "FDf": 3857,
      "GEEE": 3858,
      "DFBB": 3859,
      "cACA": 3860,
      "EAD": 3861,
      "Bdfa": 3862,
      "AAc": 3863,
      "203": 3864,
      "fdC": 3865,
      "edcB": 3866,
      "BcF": 3867,
      "gae": 3868,
      "dfB": 3869,
      "eEeE": 3870,
      "Ade": 3871,
      "ĠCDCB": 3872,
      "gbB": 3873,
      "gbE": 3874,
      "aca": 3875,
      "ĠDEFD": 3876,
      "Chords": 3877,
      "ĠdAFD": 3878,
      "Ġefef": 3879,
      "ĠHeat": 3880,
      "ami": 3881,
      "BFDF": 3882,
      "dBGG": 3883,
      "bfcg": 3884,
      "ĠFEFE": 3885,
      "Muted": 3886,
      "ĠCanvas": 3887,
      "/>^": 3888,
      "Ar": 3889,
      "AeE": 3890,
      "DEGB": 3891,
      "ax": 3892,
      "aol": 3893,
      "bAE": 3894,
      "cBF": 3895,
      "cEGC": 3896,
      "daAD": 3897,
      "fCF": 3898,
      "pe": 3899,
      "Ġper": 3900,
      "ĠGDGD": 3901,
      "ĠAFAc": 3902,
      "ĠDGB": 3903,
      "ĠDFB": 3904,
      "ĠDEDE": 3905,
      "ĠBbB": 3906,
      "ĠBBBBB": 3907,
      "ĠBEAE": 3908,
      "ĠCap": 3909,
      "ĠEeE": 3910,
      "ĠFe": 3911,
      "ĠdC": 3912,
      "Ġeed": 3913,
      "=\"-": 3914,
      "ĠfC": 3915,
      ",/[=": 3916,
      "CEAE": 3917,
      "EGGG": 3918,
      "ECGG": 3919,
      "CFCF": 3920,
      "cAEC": 3921,
      "cox": 3922,
      "ecGE": 3923,
      "AcG": 3924,
      "EFGA": 3925,
      "eeD": 3926,
      "edf": 3927,
      "faC": 3928,
      "ĠAAG": 3929,
      "dAFD": 3930,
      "dBDB": 3931,
      "aAE": 3932,
      "DdDGD": 3933,
      "bbe": 3934,
      "GdC": 3935,
      "fcg": 3936,
      "GgC": 3937,
      "ĠCDCD": 3938,
      "DGBD": 3939,
      "dGDG": 3940,
      "Ġfefg": 3941,
      "BGDBGD": 3942,
      ",,,-_": 3943,
      "Ġagfg": 3944,
      "Ġgece": 3945,
      "Acec": 3946,
      "BGEE": 3947,
      "ĠRemix": 3948,
      "ĠfAcA": 3949,
      "ACAC": 3950,
      "Ġ2001": 3951,
      "RIN": 3952,
      "voice": 3953,
      "ĠSuper": 3954,
      "Distor": 3955,
      "esizer": 3956,
      "BEA": 3957,
      "Cec": 3958,
      "CeE": 3959,
      "EeBGE": 3960,
      "For": 3961,
      "Ggc": 3962,
      "Jap": 3963,
      "]{/[": 3964,
      "cce": 3965,
      "cFf": 3966,
      "dCA": 3967,
      "dBA": 3968,
      "edd": 3969,
      "fr": 3970,
      "idd": 3971,
      "ies": 3972,
      "waken": 3973,
      "Ġ22": 3974,
      "ĠStr": 3975,
      "Ġlead": 3976,
      "ĠGEF": 3977,
      "ĠAFCA": 3978,
      "ĠDFDF": 3979,
      "ĠDDFF": 3980,
      "ĠBGD": 3981,
      "ĠBBGG": 3982,
      "ĠCAD": 3983,
      "ĠCCDE": 3984,
      "ĠCGcG": 3985,
      "ĠEFBE": 3986,
      "ĠFDAF": 3987,
      "Ġccd": 3988,
      "ĠeBBB": 3989,
      "ĠeGcG": 3990,
      "Ġfrom": 3991,
      "CEcC": 3992,
      "FABd": 3993,
      "cAFE": 3994,
      "CGD": 3995,
      "FFc": 3996,
      "egD": 3997,
      "GAF": 3998,
      "faAD": 3999,
      "geBG": 4000,
      "eAb": 4001,
      "gdGD": 4002,
      "bbB": 4003,
      "gGeG": 4004,
      "bad": 4005,
      "ball": 4006,
      "AdG": 4007,
      "bgD": 4008,
      "Ġcdb": 4009,
      "Ġdde": 4010,
      "ĠDADA": 4011,
      "ĠAcg": 4012,
      "ĠFAFA": 4013,
      "Ġgfef": 4014,
      ",,,]/[=": 4015,
      "ĠfdAF": 4016,
      "Ġgdgf": 4017,
      "ĠAEEA": 4018,
      "ĠSp": 4019,
      "ĠcGec": 4020,
      "ill": 4021,
      "ĠTo": 4022,
      "ancer": 4023,
      "Hihat": 4024,
      "ĠCastle": 4025,
      "Draw": 4026,
      "An": 4027,
      "ACc": 4028,
      "Comments": 4029,
      "IN": 4030,
      "IT": 4031,
      "YN": 4032,
      "abc": 4033,
      "cEe": 4034,
      "dCE": 4035,
      "dff": 4036,
      "fcB": 4037,
      "lcc": 4038,
      "mee": 4039,
      "man": 4040,
      "pp": 4041,
      ",,]>^": 4042,
      ",,,>^": 4043,
      ",]>[_": 4044,
      "ĠGt": 4045,
      "ĠGGA": 4046,
      "ĠBdf": 4047,
      "ĠBefb": 4048,
      "ĠCCA": 4049,
      "ĠECE": 4050,
      "Ġdfa": 4051,
      "ĠfAdf": 4052,
      ",,/>^": 4053,
      "'''][": 4054,
      "cond": 4055,
      "GcB": 4056,
      "echo": 4057,
      "Acg": 4058,
      "ffg": 4059,
      "EcF": 4060,
      "dBC": 4061,
      "geA": 4062,
      "BEe": 4063,
      "nek": 4064,
      "gdb": 4065,
      "gfef": 4066,
      "BbA": 4067,
      "AEd": 4068,
      "gGa": 4069,
      "FfB": 4070,
      "fAG": 4071,
      "orus": 4072,
      "bes": 4073,
      "cgA": 4074,
      "ĠCFcC": 4075,
      "ĠSh": 4076,
      "ĠSn": 4077,
      "ĠSquare": 4078,
      "Time": 4079,
      "ĠBell": 4080,
      "Ġaece": 4081,
      "ase": 4082,
      "here": 4083,
      "ĠdedB": 4084,
      "STRIN": 4085,
      "ARP": 4086,
      "RIFF": 4087,
      "key": 4088,
      "classic": 4089,
      "QuickTime": 4090,
      "wakening": 4091,
      "meezo": 4092,
      "ACG": 4093,
      "BCA": 4094,
      "Beb": 4095,
      "Bee": 4096,
      "CdD": 4097,
      "CCFF": 4098,
      "DcDc": 4099,
      "FcB": 4100,
      "FaA": 4101,
      "Ffc": 4102,
      "God": 4103,
      "aAF": 4104,
      "alo": 4105,
      "abab": 4106,
      "bar": 4107,
      "cga": 4108,
      "dFG": 4109,
      "dGd": 4110,
      "dea": 4111,
      "dGdG": 4112,
      "eGD": 4113,
      "fFG": 4114,
      "gEC": 4115,
      "geb": 4116,
      "ttle": 4117,
      "wo": 4118,
      "Ġ'": 4119,
      ",]>[^": 4120,
      "ĠGBA": 4121,
      "ĠAl": 4122,
      "ĠDGBG": 4123,
      "ĠEDB": 4124,
      "ĠFcF": 4125,
      "ĠFAG": 4126,
      "ĠFBdf": 4127,
      "ĠcGcd": 4128,
      "Ġcgdg": 4129,
      "Ġdede": 4130,
      "=\"#": 4131,
      "ĠfdB": 4132,
      "EGcE": 4133,
      "ind": 4134,
      "BBb": 4135,
      "288": 4136,
      "egbd": 4137,
      "fag": 4138,
      "FCc": 4139,
      "FCFA": 4140,
      "ggD": 4141,
      "ĠAAB": 4142,
      "EcEcE": 4143,
      "cfE": 4144,
      "cCFA": 4145,
      "cCcC": 4146,
      "aAe": 4147,
      "nes": 4148,
      "new": 4149,
      "DdC": 4150,
      "gfcg": 4151,
      "AaC": 4152,
      "bae": 4153,
      "inger": 4154,
      "ĠGECE": 4155,
      "ĠEAce": 4156,
      "ĠBdgb": 4157,
      "ĠgdBA": 4158,
      "ĠSolo": 4159,
      "GBeGBe": 4160,
      "omancer": 4161,
      "ĠLegend": 4162,
      "fcAG": 4163,
      "DFDF": 4164,
      "ĠBcdf": 4165,
      "ike": 4166,
      "dDGDdDGD": 4167,
      "ongball": 4168,
      "Ġ2008": 4169,
      "Ġ01": 4170,
      "ĠAges": 4171,
      "ranged": 4172,
      "Atm": 4173,
      "ĠBBBBBc": 4174,
      "nekomancer": 4175,
      ")-": 4176,
      "AGc": 4177,
      "AFDA": 4178,
      "Aead": 4179,
      "AFAF": 4180,
      "BcA": 4181,
      "BAc": 4182,
      "CfF": 4183,
      "Composer": 4184,
      "ER": 4185,
      "EdA": 4186,
      "From": 4187,
      "Gee": 4188,
      "Pol": 4189,
      "Sitar": 4190,
      "Zelda": 4191,
      "eec": 4192,
      "fBb": 4193,
      "gcf": 4194,
      "iss": 4195,
      "nb": 4196,
      "rik": 4197,
      "Ġn": 4198,
      "Ġhttp": 4199,
      ",,]>[_": 4200,
      "ĠGEC": 4201,
      "ĠGCC": 4202,
      "ĠDGA": 4203,
      "ĠCDB": 4204,
      "ĠEBB": 4205,
      "ĠEGBd": 4206,
      "Ġcec": 4207,
      "Ġegd": 4208,
      "ĠgBdB": 4209,
      "Ġgeed": 4210,
      "Ġggaa": 4211,
      "Ġafd": 4212,
      "]/>[^": 4213,
      "']}": 4214,
      "CEcA": 4215,
      "CEAB": 4216,
      "GEd": 4217,
      "ECe": 4218,
      "BBF": 4219,
      "ceF": 4220,
      "329": 4221,
      "233": 4222,
      "270": 4223,
      "Acdf": 4224,
      "GAC": 4225,
      "GFCF": 4226,
      "fgab": 4227,
      "cfD": 4228,
      "eAa": 4229,
      "bba": 4230,
      "bbg": 4231,
      "osp": 4232,
      "Ġcdec": 4233,
      "fFCA": 4234,
      ",,>[^": 4235,
      "ĠcBAc": 4236,
      "CFAA": 4237,
      "ith": 4238,
      "ĠDGDG": 4239,
      "ĠAcEA": 4240,
      "FCAB": 4241,
      "org": 4242,
      "Ġgabc": 4243,
      "Ġaabb": 4244,
      "ĠSeas": 4245,
      "hoo": 4246,
      "fdAg": 4247,
      "ĠLink": 4248,
      "ĠLevel": 4249,
      "ĠbgdB": 4250,
      "ĠKong": 4251,
      "irby": 4252,
      "BGBGB": 4253,
      "dAdAE": 4254,
      "ĠDFACEG": 4255,
      "left": 4256,
      "Vocal": 4257,
      "Vocals": 4258,
      "lingw": 4259,
      "ĠSeasons": 4260,
      "223": 4261,
      "DEC": 4262,
      "EcB": 4263,
      "EdE": 4264,
      "Guitare": 4265,
      "SYN": 4266,
      "UIT": 4267,
      "agd": 4268,
      "bDA": 4269,
      "bdf": 4270,
      "cDF": 4271,
      "cddD": 4272,
      "dCG": 4273,
      "feg": 4274,
      "free": 4275,
      "gCE": 4276,
      "gff": 4277,
      "gGC": 4278,
      "gBD": 4279,
      "mb": 4280,
      "square": 4281,
      "saw": 4282,
      "vgm": 4283,
      "yr": 4284,
      "zilla": 4285,
      "Ġre": 4286,
      "Ġpiano": 4287,
      ",,,,,_": 4288,
      ",,,,][_": 4289,
      "ĠGa": 4290,
      "ĠGce": 4291,
      "ĠGccc": 4292,
      "ĠGCGC": 4293,
      "ĠABG": 4294,
      "ĠAgdA": 4295,
      "ĠAwakening": 4296,
      "ĠBGF": 4297,
      "ĠCel": 4298,
      "ĠEn": 4299,
      "ĠFa": 4300,
      "ĠFDFA": 4301,
      "ĠFred": 4302,
      "ĠcgBg": 4303,
      "ĠdBA": 4304,
      "ĠdGBd": 4305,
      "ĠdDFD": 4306,
      "ĠeGcd": 4307,
      "Ġggd": 4308,
      "Ġat": 4309,
      "ĠaAcA": 4310,
      "CEGD": 4311,
      "Ġsite": 4312,
      "FAdf": 4313,
      "EGCG": 4314,
      "EGCB": 4315,
      "FDAd": 4316,
      "GECB": 4317,
      "'''/": 4318,
      ",]/>[": 4319,
      "cor": 4320,
      ",-=": 4321,
      "DAC": 4322,
      "DAf": 4323,
      "now": 4324,
      "off": 4325,
      "ecD": 4326,
      "egdg": 4327,
      "BAC": 4328,
      "BAD": 4329,
      "edG": 4330,
      "edcd": 4331,
      "Bcg": 4332,
      "eBg": 4333,
      "dDdD": 4334,
      "aAd": 4335,
      "DdE": 4336,
      "Dda": 4337,
      "BbG": 4338,
      "FdFd": 4339,
      "AaB": 4340,
      "Bea": 4341,
      "Bells": 4342,
      "ĠGGGB": 4343,
      "bgE": 4344,
      "Fca": 4345,
      "ĠEEDD": 4346,
      "FfFf": 4347,
      "']/_": 4348,
      "CFAC": 4349,
      "achi": 4350,
      "'']^": 4351,
      "ĠDEDG": 4352,
      "ity": 4353,
      "ĠDFBd": 4354,
      "ĠcAFD": 4355,
      "ĠBdGB": 4356,
      "ĠCAFA": 4357,
      "ĠgeGE": 4358,
      "Acea": 4359,
      "ĠSt": 4360,
      "ĠecEC": 4361,
      "Ġfcfg": 4362,
      "BFDG": 4363,
      "ĠKlingw": 4364,
      "Trumpets": 4365,
      "Shak": 4366,
      "ĠPart": 4367,
      "afcF": 4368,
      "rono": 4369,
      "ĠCDEGcd": 4370,
      "EeEe": 4371,
      "ĠUe": 4372,
      "DdDGDdDGDd": 4373,
      "range": 4374,
      "sonnel": 4375,
      "ĠKonami": 4376,
      "yahoo": 4377,
      "Ġpersonnel": 4378,
      "Godzilla": 4379,
      "vgmusic": 4380,
      "ĠKlingwall": 4381,
      "!!": 4382,
      "ACEA": 4383,
      "ABdf": 4384,
      "AcAc": 4385,
      "BCG": 4386,
      "DY": 4387,
      "DDGG": 4388,
      "DAAD": 4389,
      "FCFC": 4390,
      "Gbg": 4391,
      "Horns": 4392,
      "HARP": 4393,
      "INE": 4394,
      "Joh": 4395,
      "SFX": 4396,
      "]{/=": 4397,
      "ara": 4398,
      "bDD": 4399,
      "bgfc": 4400,
      "cGB": 4401,
      "cFc": 4402,
      "cFAF": 4403,
      "ey": 4404,
      "eDF": 4405,
      "eFc": 4406,
      "gGc": 4407,
      "gGF": 4408,
      "ive": 4409,
      "las": 4410,
      "uit": 4411,
      "vi": 4412,
      "ĠStaff": 4413,
      ",,,<_": 4414,
      "ĠGEDC": 4415,
      "ĠAEC": 4416,
      "ĠAGG": 4417,
      "ĠADE": 4418,
      "ĠBC": 4419,
      "ĠBAF": 4420,
      "ĠBeBe": 4421,
      "ĠEf": 4422,
      "ĠEDD": 4423,
      "ĠFDF": 4424,
      "ĠFFE": 4425,
      "Ġege": 4426,
      "Ġgbg": 4427,
      "Ġfee": 4428,
      "Ġfcd": 4429,
      "ĠaaA": 4430,
      "CEGEC": 4431,
      "1087": 4432,
      "GBde": 4433,
      "CAe": 4434,
      "GECc": 4435,
      "DGDdDGDdDG": 4436,
      "cAEB": 4437,
      "''/_": 4438,
      "cer": 4439,
      "DBC": 4440,
      "con": 4441,
      "ecf": 4442,
      "cdg": 4443,
      "fgeg": 4444,
      "ggC": 4445,
      "efB": 4446,
      "Ecg": 4447,
      "dDE": 4448,
      "ari": 4449,
      "bbE": 4450,
      "GdGd": 4451,
      "CcD": 4452,
      "ĠGGcc": 4453,
      "gbG": 4454,
      "Ġedce": 4455,
      "onkey": 4456,
      "DGBdg": 4457,
      "bBf": 4458,
      "ĠcAFC": 4459,
      "Cha": 4460,
      "ĠdAeA": 4461,
      "ĠHo": 4462,
      "ĠHarmony": 4463,
      "ama": 4464,
      "ĠTri": 4465,
      "ĠTime": 4466,
      "Bcdc": 4467,
      "ĠRo": 4468,
      "basse": 4469,
      "own": 4470,
      "Ġ2004": 4471,
      "cCAC": 4472,
      "ĠAcdA": 4473,
      "LODY": 4474,
      "inkle": 4475,
      "Second": 4476,
      "osphere": 4477,
      "UITAR": 4478,
      "ĠFredrik": 4479,
      "*\"": 4480,
      "ADG": 4481,
      "ACFF": 4482,
      "Bec": 4483,
      "BED": 4484,
      "Bfg": 4485,
      "CL": 4486,
      "Dragon": 4487,
      "ES": 4488,
      "EeeE": 4489,
      "FgD": 4490,
      "Fiolin": 4491,
      "Gfd": 4492,
      "GdA": 4493,
      "GGBB": 4494,
      "Kirby": 4495,
      "PC": 4496,
      "UTE": 4497,
      "aBB": 4498,
      "afe": 4499,
      "afdA": 4500,
      "bed": 4501,
      "cDB": 4502,
      "deg": 4503,
      "fEA": 4504,
      "fBG": 4505,
      "fCC": 4506,
      "gFF": 4507,
      "perc": 4508,
      "str": 4509,
      "une": 4510,
      "vid": 4511,
      "ĠX": 4512,
      ",,<[": 4513,
      ",]>^": 4514,
      "ĠGf": 4515,
      "ĠGCFC": 4516,
      "ĠAFD": 4517,
      "ĠAcB": 4518,
      "ĠAcAF": 4519,
      "ĠDEGc": 4520,
      "ĠCl": 4521,
      "ĠCCE": 4522,
      "ĠECB": 4523,
      "ĠcAE": 4524,
      "ĠddD": 4525,
      "Ġfad": 4526,
      "Ġfgfe": 4527,
      "CEFG": 4528,
      "FAAA": 4529,
      "GBDE": 4530,
      "GBdG": 4531,
      "FDg": 4532,
      "GEDE": 4533,
      "ECf": 4534,
      "ECGC": 4535,
      "cAFG": 4536,
      "EAcB": 4537,
      "GGGE": 4538,
      "ebg": 4539,
      "eboy": 4540,
      "AcfF": 4541,
      "GFGF": 4542,
      "mpani": 4543,
      "AFCC": 4544,
      "gger": 4545,
      "geD": 4546,
      "dfc": 4547,
      "ĠBABc": 4548,
      "CcEe": 4549,
      "Fdc": 4550,
      "eGeG": 4551,
      "ĠdcBd": 4552,
      "ĠBcg": 4553,
      "ĠGFEG": 4554,
      "ĠAcGc": 4555,
      "ĠcAcA": 4556,
      "Ġgab": 4557,
      "ĠgecA": 4558,
      "unk": 4559,
      "ĠTitle": 4560,
      "ĠWai": 4561,
      "ĠcfFA": 4562,
      "Sequencer": 4563,
      "Bcdf": 4564,
      "ECEEE": 4565,
      "Accomp": 4566,
      "fede": 4567,
      "Ġdefe": 4568,
      "CbbF": 4569,
      "nyz": 4570,
      "ĠJohnnyz": 4571,
      "Atmosphere": 4572,
      "ĠTrigger": 4573,
      "869": 4574,
      "ACB": 4575,
      "BCD": 4576,
      "BEc": 4577,
      "BDGG": 4578,
      "DcA": 4579,
      "DcG": 4580,
      "DGEB": 4581,
      "FcG": 4582,
      "GfG": 4583,
      "GUITAR": 4584,
      "II": 4585,
      "LH": 4586,
      "Me": 4587,
      "Midi": 4588,
      "Power": 4589,
      "RH": 4590,
      "]>=": 4591,
      "aDB": 4592,
      "bGD": 4593,
      "cFE": 4594,
      "caa": 4595,
      "cBcB": 4596,
      "caAD": 4597,
      "dcG": 4598,
      "dbG": 4599,
      "dcdc": 4600,
      "fbe": 4601,
      "fedc": 4602,
      "gEB": 4603,
      "gdd": 4604,
      "gbb": 4605,
      "gfgf": 4606,
      "lsp": 4607,
      "ron": 4608,
      "su": 4609,
      "you": 4610,
      ",,,,,=": 4611,
      "ĠGDA": 4612,
      "ĠABB": 4613,
      "ĠAda": 4614,
      "ĠDCG": 4615,
      "ĠDav": 4616,
      "ĠBAA": 4617,
      "ĠBBA": 4618,
      "ĠBDGD": 4619,
      "ĠEFA": 4620,
      "Ġceg": 4621,
      "ĠcCd": 4622,
      "ĠcGcG": 4623,
      "ĠeGce": 4624,
      "ĠgdB": 4625,
      "ĠfeBe": 4626,
      "rev": 4627,
      "Ġadd": 4628,
      "lean": 4629,
      "CEEG": 4630,
      "CEEE": 4631,
      "Ġtheme": 4632,
      "FDFFF": 4633,
      "GECD": 4634,
      "DFBd": 4635,
      "DGGG": 4636,
      "1999": 4637,
      "ECgGeG": 4638,
      "BGb": 4639,
      "BGGB": 4640,
      "AAaa": 4641,
      "EBF": 4642,
      "FBeF": 4643,
      "266": 4644,
      "fdg": 4645,
      "fdAA": 4646,
      "fdAF": 4647,
      "GAe": 4648,
      "eeEC": 4649,
      "eda": 4650,
      "GCe": 4651,
      "ggB": 4652,
      "eBeB": 4653,
      "dAC": 4654,
      "dBDF": 4655,
      "cGEG": 4656,
      "ness": 4657,
      "DdFf": 4658,
      "lect": 4659,
      "BbE": 4660,
      "ADFD": 4661,
      "AaG": 4662,
      "Ġedgd": 4663,
      "Ġtrack": 4664,
      "']/(": 4665,
      "ĠccBB": 4666,
      "Ġccdd": 4667,
      "adG": 4668,
      "'-_": 4669,
      "ant": 4670,
      "GECGEC": 4671,
      "afG": 4672,
      "ĠcAFA": 4673,
      "caF": 4674,
      "ĠgdeB": 4675,
      "que": 4676,
      "ĠAdfa": 4677,
      "ĠMap": 4678,
      "ameboy": 4679,
      "ĠTemp": 4680,
      "ĠIs": 4681,
      "Ġeabd": 4682,
      "FEDE": 4683,
      "]<[_": 4684,
      "ĠOver": 4685,
      "ysynth": 4686,
      "Ġfbfe": 4687,
      "Vibes": 4688,
      "okemon": 4689,
      "Ġagag": 4690,
      "ouble": 4691,
      "tsu": 4692,
      "izard": 4693,
      "Eebb": 4694,
      "ELP": 4695,
      "Japan": 4696,
      "ĠCello": 4697,
      "lspar": 4698,
      "637": 4699,
      "AFDB": 4700,
      "And": 4701,
      "BECG": 4702,
      "Battle": 4703,
      "CBA": 4704,
      "CfA": 4705,
      "FireMario": 4706,
      "GeGe": 4707,
      "]<_": 4708,
      "aeE": 4709,
      "bDB": 4710,
      "beb": 4711,
      "bec": 4712,
      "bAa": 4713,
      "cDD": 4714,
      "dbC": 4715,
      "dFAD": 4716,
      "dFdF": 4717,
      "ext": 4718,
      "eECG": 4719,
      "efga": 4720,
      "ever": 4721,
      "fBF": 4722,
      "gCC": 4723,
      "gba": 4724,
      "ka": 4725,
      "land": 4726,
      "steel": 4727,
      "tre": 4728,
      "Ġv": 4729,
      "Ġis": 4730,
      "ĠViolin": 4731,
      "ĠGddA": 4732,
      "ĠAaAa": 4733,
      "ĠCED": 4734,
      "ĠcecG": 4735,
      "ĠcGFE": 4736,
      "ĠcGAG": 4737,
      "ĠcFFf": 4738,
      "ĠecA": 4739,
      "ĠedA": 4740,
      "Ġefc": 4741,
      "ĠgF": 4742,
      "Ġgac": 4743,
      "Ġgeae": 4744,
      "ĠfCFA": 4745,
      "Ġfeee": 4746,
      "Ġbed": 4747,
      "Ġbeae": 4748,
      "Ġar": 4749,
      "lev": 4750,
      "Ġstem": 4751,
      "Ġsong": 4752,
      "EGcd": 4753,
      "FDCD": 4754,
      "GECE": 4755,
      "ECg": 4756,
      "ECGE": 4757,
      "cACF": 4758,
      "cADD": 4759,
      "cAeA": 4760,
      "BGFG": 4761,
      "BGDd": 4762,
      "BBcc": 4763,
      "ceEG": 4764,
      "cegb": 4765,
      "GGGGG": 4766,
      "GABc": 4767,
      "CDED": 4768,
      "EFGF": 4769,
      "BABA": 4770,
      "faECA": 4771,
      "GDe": 4772,
      "CBgd": 4773,
      "BFEB": 4774,
      "ĠAAEG": 4775,
      "ĠAAFF": 4776,
      "aAf": 4777,
      "gfB": 4778,
      "FdG": 4779,
      "bgC": 4780,
      "EeGg": 4781,
      "ĠABcA": 4782,
      "adow": 4783,
      "Ġddcd": 4784,
      "ĠDEFA": 4785,
      "itt": 4786,
      "itone": 4787,
      "aaD": 4788,
      "Ġffeg": 4789,
      "BfE": 4790,
      "Ġefee": 4791,
      "Bassline": 4792,
      "ĠGcCG": 4793,
      "ĠHat": 4794,
      "GceC": 4795,
      "aman": 4796,
      "matsu": 4797,
      "cEAE": 4798,
      "ĠAefa": 4799,
      "ĠNES": 4800,
      "ĠfAdA": 4801,
      "ĠfAgA": 4802,
      "brass": 4803,
      "ACEAE": 4804,
      "Agogo": 4805,
      "oko": 4806,
      "Ġmelody": 4807,
      "ĠYou": 4808,
      "ĠGBde": 4809,
      "Baritone": 4810,
      "onky": 4811,
      "iddle": 4812,
      "revost": 4813,
      ",\"": 4814,
      "/{/^": 4815,
      "/{/=": 4816,
      "AEF": 4817,
      "AeB": 4818,
      "ABD": 4819,
      "AfD": 4820,
      "BaG": 4821,
      "CeG": 4822,
      "DS": 4823,
      "FBG": 4824,
      "GbC": 4825,
      "HH": 4826,
      "Hat": 4827,
      "Honky": 4828,
      "JV": 4829,
      "Reed": 4830,
      "Temp": 4831,
      "__": 4832,
      "aCE": 4833,
      "afaf": 4834,
      "bBd": 4835,
      "bEB": 4836,
      "bdd": 4837,
      "bGC": 4838,
      "beB": 4839,
      "bdD": 4840,
      "cbB": 4841,
      "dEC": 4842,
      "dFC": 4843,
      "eGd": 4844,
      "fGB": 4845,
      "fDG": 4846,
      "fFB": 4847,
      "gAE": 4848,
      "gAd": 4849,
      "zag": 4850,
      "~~": 4851,
      "ĠGBe": 4852,
      "ĠGBdB": 4853,
      "ĠGgdg": 4854,
      "ĠAGED": 4855,
      "ĠDAG": 4856,
      "ĠDECD": 4857,
      "ĠBs": 4858,
      "ĠBEGE": 4859,
      "ĠBAAG": 4860,
      "ĠBall": 4861,
      "ĠCEAc": 4862,
      "ĠEGc": 4863,
      "ĠEGED": 4864,
      "ĠFFG": 4865,
      "ĠFAd": 4866,
      "ĠFCFC": 4867,
      "ĠcFc": 4868,
      "Ġcedc": 4869,
      "ĠcGEc": 4870,
      "Ġdgd": 4871,
      "ĠdcAG": 4872,
      "ĠecGE": 4873,
      "Ġedfe": 4874,
      "ĠgD": 4875,
      "ĠfAcf": 4876,
      "rea": 4877,
      "Ġaea": 4878,
      "ĠafcA": 4879,
      "Ġafgf": 4880,
      "]/>[_": 4881,
      "]/>[=": 4882,
      "FAFF": 4883,
      "ECcA": 4884,
      "BGGG": 4885,
      "GGGEc": 4886,
      "AAd": 4887,
      "231": 4888,
      "EEcc": 4889,
      "CGg": 4890,
      "FFGG": 4891,
      "DAE": 4892,
      "tes": 4893,
      "265": 4894,
      "ake": 4895,
      "egaman": 4896,
      "GABd": 4897,
      "]-[": 4898,
      "faB": 4899,
      "BcD": 4900,
      "GDBB": 4901,
      "cBe": 4902,
      "cBcd": 4903,
      "ĠAAaa": 4904,
      "EcD": 4905,
      "gabc": 4906,
      "cGCC": 4907,
      "BDFD": 4908,
      "dDf": 4909,
      "eAG": 4910,
      "ADc": 4911,
      "gGe": 4912,
      "FdC": 4913,
      "BeF": 4914,
      "Bell": 4915,
      "ĠCDEC": 4916,
      "Ġedec": 4917,
      "Ġedeg": 4918,
      "fAeA": 4919,
      "ond": 4920,
      "ĠcBFD": 4921,
      "ĠEDEG": 4922,
      "dgBf": 4923,
      "ĠGFEF": 4924,
      "ann": 4925,
      "ĠAcBA": 4926,
      "FCAF": 4927,
      "ECAEAE": 4928,
      "EGcEGc": 4929,
      "aecA": 4930,
      "ĠCFCF": 4931,
      "agic": 4932,
      "agro": 4933,
      "ecAEA": 4934,
      "ĠLo": 4935,
      "aCa": 4936,
      "ĠZagro": 4937,
      "Ġmusic": 4938,
      "other": 4939,
      "Sub": 4940,
      "tory": 4941,
      "****************": 4942,
      "FLUTE": 4943,
      "Distortion": 4944,
      "STRINGS": 4945,
      "sawtooth": 4946,
      "ĠUematsu": 4947,
      "ronia": 4948,
      "exten": 4949,
      "zagronia": 4950,
      "911": 4951,
      "AGB": 4952,
      "CGEC": 4953,
      "CGBE": 4954,
      "DgB": 4955,
      "EdB": 4956,
      "Email": 4957,
      "FGBd": 4958,
      "Gge": 4959,
      "Megaman": 4960,
      "OI": 4961,
      "Son": 4962,
      "Tinkle": 4963,
      "Warm": 4964,
      "aDD": 4965,
      "aee": 4966,
      "aFAB": 4967,
      "adAD": 4968,
      "bCc": 4969,
      "cba": 4970,
      "ccee": 4971,
      "cari": 4972,
      "di": 4973,
      "dbB": 4974,
      "daf": 4975,
      "eFA": 4976,
      "gFD": 4977,
      "gcC": 4978,
      "gecG": 4979,
      "ja": 4980,
      "med": 4981,
      "mar": 4982,
      "mid": 4983,
      "our": 4984,
      "sc": 4985,
      "synth": 4986,
      "uh": 4987,
      "Ġ24": 4988,
      "Ġ23": 4989,
      "Ġwww": 4990,
      "ĠGBdG": 4991,
      "ĠGGAG": 4992,
      "ĠAFcF": 4993,
      "ĠAEFE": 4994,
      "ĠDDE": 4995,
      "ĠDDGG": 4996,
      "ĠBcA": 4997,
      "ĠBEGB": 4998,
      "ĠBBAG": 4999,
      "ĠBGAB": 5000,
      "ĠCFE": 5001,
      "ĠCho": 5002,
      "ĠCGcC": 5003,
      "ĠFFA": 5004,
      "ĠFGB": 5005,
      "ĠcGA": 5006,
      "Ġcfa": 5007,
      "Ġcfg": 5008,
      "ĠcCFc": 5009,
      "ĠdBB": 5010,
      "Ġdcc": 5011,
      "ĠeAA": 5012,
      "Ġecfc": 5013,
      "Ġged": 5014,
      "ĠgBcB": 5015,
      "Ġfdd": 5016,
      "Ġfaf": 5017,
      "relu": 5018,
      "Ġadc": 5019,
      "Ġthis": 5020,
      "219": 5021,
      "FACF": 5022,
      "FADA": 5023,
      "GBce": 5024,
      "GBdB": 5025,
      "enn": 5026,
      "GEcC": 5027,
      "ECa": 5028,
      "inet": 5029,
      "Bdfb": 5030,
      "BBBd": 5031,
      "BBDD": 5032,
      "AAce": 5033,
      "EBD": 5034,
      "FFEE": 5035,
      "FFff": 5036,
      "DAa": 5037,
      "DAFD": 5038,
      "281": 5039,
      "eca": 5040,
      "ecGG": 5041,
      "fdeB": 5042,
      "GFd": 5043,
      "ffgg": 5044,
      "GDc": 5045,
      "GCg": 5046,
      "ggE": 5047,
      "eBEB": 5048,
      "cBD": 5049,
      "gecAA": 5050,
      "dfbd": 5051,
      "ĠBAFA": 5052,
      "571": 5053,
      "GdF": 5054,
      "Gdbd": 5055,
      "DEe": 5056,
      "AdE": 5057,
      "ĠAGEG": 5058,
      "fAf": 5059,
      "fAfA": 5060,
      "ĠFGFB": 5061,
      "adad": 5062,
      "acD": 5063,
      "aaf": 5064,
      "bBg": 5065,
      "ĠCGCG": 5066,
      "ĠCECE": 5067,
      "ĠFAcA": 5068,
      "gBeb": 5069,
      "BfG": 5070,
      "Bfb": 5071,
      "cgC": 5072,
      "Ġgfec": 5073,
      "cGECC": 5074,
      "Chorus": 5075,
      "Chrono": 5076,
      "agdA": 5077,
      "ĠAECE": 5078,
      "ĠgeBG": 5079,
      "ĠMe": 5080,
      "ĠSequenced": 5081,
      "ĠHi": 5082,
      "abE": 5083,
      "ther": 5084,
      "GCEC": 5085,
      "March": 5086,
      "AECC": 5087,
      "ĠKid": 5088,
      "ĠFcCF": 5089,
      "CGcgc": 5090,
      "FaG": 5091,
      "irst": 5092,
      "ĠRH": 5093,
      "gdBgdB": 5094,
      "imer": 5095,
      "Synthesizer": 5096,
      "obuo": 5097,
      "ĠOf": 5098,
      "urn": 5099,
      "Ġefge": 5100,
      "ĠcCBB": 5101,
      "STRUM": 5102,
      "Pista": 5103,
      "ĠdcdB": 5104,
      "...": 5105,
      "ĠAccomp": 5106,
      "Boss": 5107,
      "atsu": 5108,
      "ĠMain": 5109,
      "MELODY": 5110,
      "Overdrive": 5111,
      "ĠCapcom": 5112,
      "rangement": 5113,
      "ĠDavis": 5114,
      "caribou": 5115,
      "BO": 5116,
      "BCC": 5117,
      "BCEG": 5118,
      "BfB": 5119,
      "BEBE": 5120,
      "CdG": 5121,
      "CBdB": 5122,
      "Cgeg": 5123,
      "Clean": 5124,
      "DCC": 5125,
      "Dul": 5126,
      "EN": 5127,
      "ET": 5128,
      "ECEG": 5129,
      "Fec": 5130,
      "Finger": 5131,
      "GM": 5132,
      "Ham": 5133,
      "Hats": 5134,
      "Man": 5135,
      "SB": 5136,
      "Th": 5137,
      "Theme": 5138,
      "Tone": 5139,
      "ata": 5140,
      "aeae": 5141,
      "bCA": 5142,
      "bfF": 5143,
      "ctor": 5144,
      "cimer": 5145,
      "dCe": 5146,
      "dbE": 5147,
      "eFF": 5148,
      "fCA": 5149,
      "fGA": 5150,
      "fCD": 5151,
      "fFFF": 5152,
      "fFfF": 5153,
      "fefe": 5154,
      "gEE": 5155,
      "gDD": 5156,
      "gfa": 5157,
      "ula": 5158,
      "ware": 5159,
      "yright": 5160,
      "ĠQuest": 5161,
      "Ġright": 5162,
      ",,,{/": 5163,
      "ĠGDG": 5164,
      "ĠGcc": 5165,
      "ĠGEGE": 5166,
      "ĠAeAe": 5167,
      "ĠBGB": 5168,
      "ĠBee": 5169,
      "ĠBlock": 5170,
      "ĠBach": 5171,
      "ĠCDA": 5172,
      "ĠEED": 5173,
      "ĠECGC": 5174,
      "ĠFAF": 5175,
      "ĠFor": 5176,
      "Ġced": 5177,
      "ĠcAG": 5178,
      "Ġcac": 5179,
      "Ġdfg": 5180,
      "Ġdrum": 5181,
      "ĠdGdG": 5182,
      "Ġdcdc": 5183,
      "ĠdFfF": 5184,
      "=\"----------------": 5185,
      "Ġgfd": 5186,
      "Ġgeg": 5187,
      "Ġbebe": 5188,
      "ren": 5189,
      "CEa": 5190,
      "CEEC": 5191,
      "Ġth": 5192,
      "GBeg": 5193,
      "GBeB": 5194,
      "ust": 5195,
      "DFa": 5196,
      "DFBG": 5197,
      "EAcE": 5198,
      "BGdD": 5199,
      "ins": 5200,
      "DBc": 5201,
      "ccCCCC": 5202,
      "DDe": 5203,
      "229": 5204,
      "GAg": 5205,
      "GAce": 5206,
      "GFcF": 5207,
      "BAGA": 5208,
      "ffD": 5209,
      "ffAA": 5210,
      "BcC": 5211,
      "fgg": 5212,
      "ggA": 5213,
      "475": 5214,
      "efF": 5215,
      "cfb": 5216,
      "gaE": 5217,
      "aADA": 5218,
      "eAeA": 5219,
      "bbC": 5220,
      "Bbg": 5221,
      "AECE": 5222,
      "gGgG": 5223,
      "AaE": 5224,
      "BeC": 5225,
      "ĠGGAA": 5226,
      "FfE": 5227,
      "ĠcdG": 5228,
      "ĠcdGc": 5229,
      "Ġcded": 5230,
      "ĠcdBc": 5231,
      "GgA": 5232,
      "tain": 5233,
      "DFAdf": 5234,
      "DFADFA": 5235,
      "ĠFAFD": 5236,
      "ĠFAce": 5237,
      "orge": 5238,
      "Ġgame": 5239,
      "ĠFDFD": 5240,
      "Classic": 5241,
      "cGEA": 5242,
      "cGEE": 5243,
      "AeD": 5244,
      "ĠAFCF": 5245,
      "trumpet": 5246,
      "ĠMo": 5247,
      "ĠecGc": 5248,
      "iope": 5249,
      "Drumset": 5250,
      "Ġdgbd": 5251,
      "Ġfagf": 5252,
      "ĠLH": 5253,
      "ĠKatt": 5254,
      "Ġeagf": 5255,
      "AdfD": 5256,
      "cEAA": 5257,
      "ĠCCCB": 5258,
      "oes": 5259,
      "ĠOp": 5260,
      "FGBc": 5261,
      "ĠEcGc": 5262,
      "ĠEcEc": 5263,
      "Map": 5264,
      "STR": 5265,
      "cGcGc": 5266,
      "ĠFGFGFc": 5267,
      "ood": 5268,
      "cddC": 5269,
      "racula": 5270,
      "DBBD": 5271,
      "Kalimba": 5272,
      "uka": 5273,
      "rrrrrrrr": 5274,
      "Drawbar": 5275,
      "Polysynth": 5276,
      "SYNTH": 5277,
      "nown": 5278,
      "DGBdgbd": 5279,
      "CLAR": 5280,
      "Dulcimer": 5281,
      "'\"": 5282,
      "419": 5283,
      "433": 5284,
      "AGC": 5285,
      "AffA": 5286,
      "Bfa": 5287,
      "BfA": 5288,
      "Bal": 5289,
      "Cfc": 5290,
      "Cea": 5291,
      "Cor": 5292,
      "CgA": 5293,
      "Cop": 5294,
      "Ddf": 5295,
      "DdDd": 5296,
      "EgA": 5297,
      "Extra": 5298,
      "FbB": 5299,
      "LE": 5300,
      "Level": 5301,
      "Mob": 5302,
      "Op": 5303,
      "Ste": 5304,
      "Sing": 5305,
      "Xtre": 5306,
      "add": 5307,
      "abe": 5308,
      "aDFAc": 5309,
      "bBG": 5310,
      "bea": 5311,
      "bcegeg": 5312,
      "cfd": 5313,
      "cbe": 5314,
      "ccAA": 5315,
      "eDB": 5316,
      "eFB": 5317,
      "eddc": 5318,
      "fGE": 5319,
      "fGg": 5320,
      "fbc": 5321,
      "gAA": 5322,
      "ot": 5323,
      "Ġ+": 5324,
      "Ġ64": 5325,
      ",]<[_": 5326,
      "ĠGM": 5327,
      "ĠGBB": 5328,
      "ĠGEGc": 5329,
      "ĠGcg": 5330,
      "ĠGDDE": 5331,
      "ĠACEA": 5332,
      "ĠAaD": 5333,
      "ĠAGAB": 5334,
      "ĠADDA": 5335,
      "ĠAFBF": 5336,
      "ĠDCC": 5337,
      "ĠDcAc": 5338,
      "ĠDDAD": 5339,
      "ĠBdAd": 5340,
      "ĠBdfb": 5341,
      "ĠBddB": 5342,
      "ĠCCGC": 5343,
      "ĠEFF": 5344,
      "ĠExtra": 5345,
      "ĠFDD": 5346,
      "ĠFCAF": 5347,
      "ĠcCFC": 5348,
      "ĠcGFG": 5349,
      "ĠdFd": 5350,
      "Ġdead": 5351,
      "ĠdBdB": 5352,
      "Ġdfaf": 5353,
      "Ġdegd": 5354,
      "Ġedd": 5355,
      "ĠeCEG": 5356,
      "Ġegab": 5357,
      "Ġeced": 5358,
      "ĠgC": 5359,
      "Ġgbe": 5360,
      "Ġgeee": 5361,
      "Ġfca": 5362,
      ",/>=": 5363,
      "Ġabg": 5364,
      "Ġaae": 5365,
      "ĠaAaA": 5366,
      ",,,]/_": 5367,
      "CEd": 5368,
      "CEcG": 5369,
      "CEAD": 5370,
      "FAcd": 5371,
      "EGBB": 5372,
      "EGDB": 5373,
      "242": 5374,
      "FDAC": 5375,
      "1755": 5376,
      "CFcF": 5377,
      "CFcfc": 5378,
      "cAFc": 5379,
      "BdFF": 5380,
      "Bdgb": 5381,
      "ral": 5382,
      "ceCE": 5383,
      "cegG": 5384,
      "GGAA": 5385,
      "AAcc": 5386,
      ",]/>": 5387,
      "CGCG": 5388,
      "304": 5389,
      "297": 5390,
      "334": 5391,
      "fdAa": 5392,
      "CDEF": 5393,
      "eeF": 5394,
      "ddDDDD": 5395,
      "ffFFFF": 5396,
      "cdb": 5397,
      "edcA": 5398,
      "faCA": 5399,
      "FCDA": 5400,
      "FGce": 5401,
      "CBGE": 5402,
      "496": 5403,
      "ero": 5404,
      "ggGGGG": 5405,
      "eBD": 5406,
      "eBf": 5407,
      "cfFF": 5408,
      "dDFA": 5409,
      "dDGB": 5410,
      "aAG": 5411,
      "BEFD": 5412,
      "ĠBAGA": 5413,
      "bbG": 5414,
      "ĠGABG": 5415,
      "ĠDDAA": 5416,
      "ĠDDCD": 5417,
      "EeD": 5418,
      "ABeB": 5419,
      "Ġedea": 5420,
      "ĠccGG": 5421,
      "'']-": 5422,
      "eCf": 5423,
      "eCg": 5424,
      "ĠGFGA": 5425,
      "DFAg": 5426,
      "bBGE": 5427,
      "ĠDAdA": 5428,
      "ĠCEcA": 5429,
      "ang": 5430,
      "ĠAcBc": 5431,
      "ĠFAGA": 5432,
      "dcD": 5433,
      "dcddDD": 5434,
      "dFBB": 5435,
      "ĠFEDF": 5436,
      "FAcD": 5437,
      "ĠFDEF": 5438,
      "ĠFDcd": 5439,
      "ĠBdcB": 5440,
      "Ġggcc": 5441,
      "GBdgG": 5442,
      ",,,]/[_": 5443,
      "Ġfgbg": 5444,
      "ĠGDDG": 5445,
      "ĠGDEB": 5446,
      "Tractor": 5447,
      "ĠAEBG": 5448,
      "ĠceEG": 5449,
      "ĠaaAA": 5450,
      "ĠSystem": 5451,
      "ĠSound": 5452,
      "ĠHop": 5453,
      "--\"": 5454,
      "---": 5455,
      "abF": 5456,
      "Ġegbagd": 5457,
      "omb": 5458,
      "ĠTr": 5459,
      "Ġfcga": 5460,
      "ĠbgeB": 5461,
      "Ġbdgb": 5462,
      "ĠeABE": 5463,
      "ĠeAeA": 5464,
      "ĠKom": 5465,
      "FGAG": 5466,
      "ĠName": 5467,
      "ĠDdDD": 5468,
      "GdBD": 5469,
      "ADADC": 5470,
      "verse": 5471,
      "arri": 5472,
      "ĠgGfG": 5473,
      "ield": 5474,
      "CEAcE": 5475,
      "Concer": 5476,
      "...\"": 5477,
      "Clavinet": 5478,
      "ĠbagdBAGD": 5479,
      "tima": 5480,
      "=\"---\"": 5481,
      "Overdriven": 5482,
      "ĠĠĠĠĠĠĠĠĠĠĠĠĠĠĠĠĠĠĠĠĠĠĠĠĠĠĠĠĠĠĠĠĠĠĠĠĠĠĠĠĠĠĠĠĠĠĠĠĠĠĠĠĠĠĠĠĠĠĠĠĠĠĠĠĠĠĠĠĠĠĠĠĠĠĠĠĠĠĠĠĠĠĠĠĠĠĠĠĠĠĠĠĠĠĠĠĠĠĠĠĠĠĠĠĠĠĠĠĠĠĠĠĠĠĠĠĠĠĠĠĠĠĠĠĠĠĠĠĠĠĠĠĠĠĠĠĠĠĠĠĠĠĠĠĠĠĠĠĠĠĠĠĠĠĠĠĠĠĠĠĠĠĠĠĠĠĠĠĠĠĠĠĠĠĠĠĠĠĠĠĠĠĠĠĠĠĠĠĠĠĠĠĠĠĠĠĠĠĠĠĠĠĠĠĠĠĠĠĠĠĠĠĠĠĠĠĠĠĠĠĠĠĠĠĠĠĠĠĠĠĠĠĠĠĠĠĠĠĠĠĠĠĠĠĠĠĠĠĠĠĠĠĠĠĠĠĠĠĠĠĠĠĠĠĠĠĠĠĠĠĠĠĠĠĠĠĠĠĠĠĠĠĠĠĠĠĠĠĠĠĠĠĠĠĠĠĠĠĠĠĠĠĠĠĠĠĠĠĠĠĠĠĠĠĠĠĠĠĠĠĠĠĠĠĠĠĠĠĠĠĠĠĠĠĠĠĠĠĠĠĠĠĠĠĠĠĠĠĠĠĠĠĠĠĠĠĠĠĠĠĠĠĠĠĠĠĠĠĠĠĠĠĠĠĠĠĠĠĠĠĠĠĠĠĠĠĠĠĠĠĠĠĠĠĠĠĠĠĠĠĠĠĠĠĠĠĠĠĠĠĠĠĠĠĠĠĠĠĠĠĠĠĠĠĠĠĠĠĠĠĠĠĠĠĠĠĠĠĠĠĠĠĠĠĠĠĠĠĠĠĠĠĠĠĠĠĠĠĠĠĠĠĠĠĠĠĠĠĠĠĠĠĠĠĠĠĠĠĠĠĠĠĠĠĠĠĠĠĠĠĠĠĠĠĠĠĠĠĠĠĠĠĠĠĠĠĠĠĠĠĠĠ": 5483,
      "ceegceeg": 5484,
      "ĠComposers": 5485,
      "ĠSnare": 5486,
      "ĠEnter": 5487,
      "ĠCDEGcdeg": 5488,
      "cegbegbd": 5489,
      "GGGEcEcEcE": 5490,
      "SubTractor": 5491,
      "uhachi": 5492,
      "relude": 5493,
      "Xtreme": 5494,
      "ĠAaDe": 5495,
      "ĠdFdBFE": 5496,
      "ĠHope": 5497,
      "ĠegbagdBA": 5498,
      "'t": 5499,
      "07": 5500,
      "330": 5501,
      "AM": 5502,
      "ABB": 5503,
      "ADAD": 5504,
      "Aug": 5505,
      "BCAC": 5506,
      "Cee": 5507,
      "CcAE": 5508,
      "DK": 5509,
      "DcD": 5510,
      "EgG": 5511,
      "EECG": 5512,
      "End": 5513,
      "EECC": 5514,
      "EFDF": 5515,
      "FGcC": 5516,
      "JBar": 5517,
      "MID": 5518,
      "Togo": 5519,
      "Tmb": 5520,
      "aEA": 5521,
      "ain": 5522,
      "agc": 5523,
      "agag": 5524,
      "bCE": 5525,
      "bEG": 5526,
      "bEC": 5527,
      "ct": 5528,
      "cgf": 5529,
      "cCEA": 5530,
      "cFBc": 5531,
      "eDD": 5532,
      "eEF": 5533,
      "ecAF": 5534,
      "eegg": 5535,
      "fGc": 5536,
      "fAE": 5537,
      "fba": 5538,
      "gGA": 5539,
      "gfdB": 5540,
      "ha": 5541,
      "kat": 5542,
      "katt": 5543,
      "ltima": 5544,
      "ros": 5545,
      "rys": 5546,
      "sa": 5547,
      "syn": 5548,
      "ull": 5549,
      "web": 5550,
      "Ġ25": 5551,
      "Ġ28": 5552,
      "ĠPercussion": 5553,
      "ĠSaw": 5554,
      "ĠGFD": 5555,
      "ĠGEA": 5556,
      "ĠGEAE": 5557,
      "ĠGFAG": 5558,
      "ĠAr": 5559,
      "ĠAEB": 5560,
      "ĠAGD": 5561,
      "ĠAcde": 5562,
      "ĠAcAG": 5563,
      "ĠABGA": 5564,
      "ĠBEB": 5565,
      "ĠBCB": 5566,
      "ĠBEBE": 5567,
      "ĠCFc": 5568,
      "ĠCon": 5569,
      "ĠCAC": 5570,
      "ĠEAB": 5571,
      "ĠEFBe": 5572,
      "ĠFCFA": 5573,
      "ĠcGF": 5574,
      "ĠcDBD": 5575,
      "ĠdDA": 5576,
      "ĠdGAG": 5577,
      "=\"[": 5578,
      "Ġgcc": 5579,
      "Ġbo": 5580,
      "ĠbBbB": 5581,
      ",,/<": 5582,
      "rew": 5583,
      "']>": 5584,
      "ley": 5585,
      "CECA": 5586,
      "CECC": 5587,
      "CEcAC": 5588,
      "Ġsequenced": 5589,
      "FAcc": 5590,
      "CAcE": 5591,
      "ene": 5592,
      "CFa": 5593,
      "inish": 5594,
      "Bdcd": 5595,
      "cega": 5596,
      "GGFF": 5597,
      "GGGc": 5598,
      "GGff": 5599,
      "AADA": 5600,
      "255": 5601,
      "EEFF": 5602,
      "ccce": 5603,
      "ccCC": 5604,
      "226": 5605,
      "FFFFF": 5606,
      "DAdg": 5607,
      "ebA": 5608,
      "ecGD": 5609,
      "egeg": 5610,
      "353": 5611,
      "ddf": 5612,
      "fgbd": 5613,
      "erie": 5614,
      "gge": 5615,
      "ggGDB": 5616,
      "eBb": 5617,
      "efC": 5618,
      "EcGC": 5619,
      "gaD": 5620,
      "dBGB": 5621,
      "dBBd": 5622,
      "cGCE": 5623,
      "aAfA": 5624,
      "BEd": 5625,
      "CEGg": 5626,
      "bbFA": 5627,
      "bbFb": 5628,
      "Gdgc": 5629,
      "BbD": 5630,
      "Bbd": 5631,
      "ADad": 5632,
      "bda": 5633,
      "eaE": 5634,
      "eGCG": 5635,
      "ĠAGDA": 5636,
      "gbC": 5637,
      "gbD": 5638,
      "']/^": 5639,
      "ĠEFGE": 5640,
      "DFAG": 5641,
      "ĠFAdA": 5642,
      "ECAcAc": 5643,
      "ĠdBcd": 5644,
      "ĠdAGD": 5645,
      "ĠBGEG": 5646,
      "ĠfdBG": 5647,
      "gCg": 5648,
      "daD": 5649,
      "AfC": 5650,
      "AceA": 5651,
      "CDFG": 5652,
      "amis": 5653,
      "ilyr": 5654,
      "ĠTaken": 5655,
      "Tim": 5656,
      "him": 5657,
      "ĠLine": 5658,
      "ĠKo": 5659,
      "Shamis": 5660,
      "ĠNa": 5661,
      "ĠPokemon": 5662,
      "ĠPJBar": 5663,
      "ĠOut": 5664,
      "ADADD": 5665,
      "ĠFdBFEB": 5666,
      "Reverse": 5667,
      "bbbbg": 5668,
      "BdBdE": 5669,
      "oftware": 5670,
      "uien": 5671,
      "Ġhand": 5672,
      "ĠInc": 5673,
      "uki": 5674,
      "Ġffgg": 5675,
      "layer": 5676,
      "EddE": 5677,
      "Ġorgan": 5678,
      "ACcCE": 5679,
      "pport": 5680,
      "alog": 5681,
      "ĠHouse": 5682,
      "itten": 5683,
      "Tempo": 5684,
      "ĠChoir": 5685,
      "=\"--------------------------------": 5686,
      "Mobile": 5687,
      "TogoXtreme": 5688,
      "Tmbn": 5689,
      "katilyr": 5690,
      "rystal": 5691,
      "ĠEFBeFd": 5692,
      "Shamisen": 5693,
      "ĠPJBarnes": 5694,
      "08": 5695,
      "311": 5696,
      "713": 5697,
      "719": 5698,
      "Bfe": 5699,
      "Bceg": 5700,
      "Bcde": 5701,
      "Ceg": 5702,
      "CaF": 5703,
      "DbF": 5704,
      "EP": 5705,
      "EbB": 5706,
      "EFAC": 5707,
      "Eerie": 5708,
      "FGFG": 5709,
      "GbE": 5710,
      "Kuien": 5711,
      "Mic": 5712,
      "OU": 5713,
      "Pr": 5714,
      "SH": 5715,
      "Te": 5716,
      "Ty": 5717,
      "This": 5718,
      "aAc": 5719,
      "aeB": 5720,
      "adB": 5721,
      "aECG": 5722,
      "bGG": 5723,
      "bGg": 5724,
      "cCB": 5725,
      "cECC": 5726,
      "dAc": 5727,
      "dAAD": 5728,
      "elec": 5729,
      "fEC": 5730,
      "fBA": 5731,
      "fbf": 5732,
      "for": 5733,
      "gFB": 5734,
      "gdf": 5735,
      "horn": 5736,
      "if": 5737,
      "ki": 5738,
      "ks": 5739,
      "kid": 5740,
      "pongball": 5741,
      "ritten": 5742,
      "uu": 5743,
      "uff": 5744,
      "uta": 5745,
      "yoko": 5746,
      "Ġit": 5747,
      "Ġleft": 5748,
      ",,,,]-": 5749,
      ",,{/^": 5750,
      ",,]>_": 5751,
      ",]<[^": 5752,
      "ĠGdG": 5753,
      "ĠGFFE": 5754,
      "ĠGameboy": 5755,
      "ĠAEA": 5756,
      "ĠAFDA": 5757,
      "ĠDo": 5758,
      "ĠDDA": 5759,
      "ĠDFAc": 5760,
      "ĠDGAB": 5761,
      "ĠDragon": 5762,
      "ĠDonkey": 5763,
      "ĠBeB": 5764,
      "ĠBfB": 5765,
      "ĠBegb": 5766,
      "ĠBAcB": 5767,
      "ĠCFD": 5768,
      "ĠCDG": 5769,
      "ĠEDG": 5770,
      "ĠECD": 5771,
      "ĠEAAA": 5772,
      "ĠEGGG": 5773,
      "ĠEFDE": 5774,
      "ĠFDC": 5775,
      "Ġcddc": 5776,
      "Ġdee": 5777,
      "ĠeGdG": 5778,
      "ĠgGcG": 5779,
      "Ġgede": 5780,
      "ĠgBcg": 5781,
      "ĠfGdG": 5782,
      "Ġfegf": 5783,
      "Ġbge": 5784,
      "Ġacc": 5785,
      "CECEC": 5786,
      "CEGBE": 5787,
      "CEBGC": 5788,
      "EGCE": 5789,
      "EGGE": 5790,
      "ssoftware": 5791,
      "GBED": 5792,
      "enu": 5793,
      "249": 5794,
      "1739": 5795,
      "ECCE": 5796,
      "ECGBGB": 5797,
      "cAg": 5798,
      "EAea": 5799,
      "BGCG": 5800,
      "BGeE": 5801,
      "2080": 5802,
      "325": 5803,
      "257": 5804,
      "234": 5805,
      "EEc": 5806,
      "CGcC": 5807,
      "ccia": 5808,
      "DDAD": 5809,
      "227": 5810,
      "non": 5811,
      "ebast": 5812,
      "FBb": 5813,
      "ecEE": 5814,
      "'/[_": 5815,
      "fdBF": 5816,
      "egm": 5817,
      "egcc": 5818,
      "EFBB": 5819,
      "eeEE": 5820,
      "ddE": 5821,
      "mpssoftware": 5822,
      "BcBc": 5823,
      "ggb": 5824,
      "BFfF": 5825,
      "ĠAAGA": 5826,
      "cfG": 5827,
      "cCg": 5828,
      "BDg": 5829,
      "ĠBABf": 5830,
      "gdc": 5831,
      "gfC": 5832,
      "gcE": 5833,
      "ĠGABB": 5834,
      "595": 5835,
      "AdFD": 5836,
      "EeFf": 5837,
      "ĠEEg": 5838,
      "FfG": 5839,
      "eaC": 5840,
      "eaa": 5841,
      "ĠCCDD": 5842,
      "ĠCCcC": 5843,
      "ĠedBA": 5844,
      "ĠFFaF": 5845,
      "ado": 5846,
      "gBf": 5847,
      "EbA": 5848,
      "Org": 5849,
      "ĠCAEA": 5850,
      "Ġgfeg": 5851,
      "aeAAA": 5852,
      "Ġagfa": 5853,
      "Traccia": 5854,
      "ĠAFcA": 5855,
      "ĠMerc": 5856,
      "ĠSo": 5857,
      "ĠSebast": 5858,
      "ĠHorns": 5859,
      "ĠcGce": 5860,
      "amic": 5861,
      "ambo": 5862,
      "Ġegce": 5863,
      "ung": 5864,
      "unge": 5865,
      "ĠTak": 5866,
      "Mark": 5867,
      "Abmin": 5868,
      "AECF": 5869,
      "elay": 5870,
      "aBa": 5871,
      "asu": 5872,
      "gggGG": 5873,
      "ation": 5874,
      "atch": 5875,
      "------\"": 5876,
      "cEGA": 5877,
      "ĠRace": 5878,
      "ĠfFeF": 5879,
      "ĠNight": 5880,
      "ĠfAeA": 5881,
      "gegeB": 5882,
      "dgbDGB": 5883,
      "snare": 5884,
      "ystic": 5885,
      "ĠFGAF": 5886,
      "DEAF": 5887,
      "Ġagac": 5888,
      "dAdADA": 5889,
      "BDBD": 5890,
      "ongo": 5891,
      "ĠDDGAcd": 5892,
      "ĠDcBc": 5893,
      "EGEGEG": 5894,
      "LOCK": 5895,
      "GCBCE": 5896,
      "ONK": 5897,
      "ĠIntro": 5898,
      "efefef": 5899,
      "ĠSelect": 5900,
      "luck": 5901,
      "AfAf": 5902,
      "illage": 5903,
      "jiyoko": 5904,
      "orest": 5905,
      "ounter": 5906,
      "Arranged": 5907,
      "Analog": 5908,
      "gfcgffgc": 5909,
      "Ġegde": 5910,
      "Shakuhachi": 5911,
      "INET": 5912,
      "Johann": 5913,
      "Copyright": 5914,
      "rosoft": 5915,
      "Microsoft": 5916,
      "ĠSebastian": 5917,
      ".-": 5918,
      "/\"": 5919,
      "622": 5920,
      "647": 5921,
      "AeAe": 5922,
      "Bgf": 5923,
      "Bccc": 5924,
      "Begb": 5925,
      "BDFG": 5926,
      "Bgdg": 5927,
      "CgG": 5928,
      "Cccc": 5929,
      "CDGD": 5930,
      "Dr": 5931,
      "Dgf": 5932,
      "DBGD": 5933,
      "Ens": 5934,
      "EdG": 5935,
      "EFFF": 5936,
      "Fee": 5937,
      "First": 5938,
      "GAAA": 5939,
      "GLOCK": 5940,
      "Hit": 5941,
      "Melod": 5942,
      "Nobuo": 5943,
      "QS": 5944,
      "TG": 5945,
      "Up": 5946,
      "WE": 5947,
      "ZZ": 5948,
      "aBd": 5949,
      "aDA": 5950,
      "acC": 5951,
      "adf": 5952,
      "aac": 5953,
      "bDF": 5954,
      "bBE": 5955,
      "bDd": 5956,
      "cCEe": 5957,
      "dCF": 5958,
      "dEA": 5959,
      "dGF": 5960,
      "dGg": 5961,
      "dfdf": 5962,
      "fDd": 5963,
      "gceG": 5964,
      "hh": 5965,
      "hits": 5966,
      "ilo": 5967,
      "jazz": 5968,
      "kas": 5969,
      "syo": 5970,
      "ton": 5971,
      "violin": 5972,
      "yuki": 5973,
      "Ġ26": 5974,
      "Ġma": 5975,
      "ĠGGE": 5976,
      "ĠGEGB": 5977,
      "ĠAbou": 5978,
      "ĠDFE": 5979,
      "ĠDGBg": 5980,
      "ĠDark": 5981,
      "ĠBGA": 5982,
      "ĠBBc": 5983,
      "ĠBea": 5984,
      "ĠBcAB": 5985,
      "ĠCEB": 5986,
      "ĠCEGE": 5987,
      "ĠCCEE": 5988,
      "ĠEEG": 5989,
      "ĠFcAF": 5990,
      "ĠcGE": 5991,
      "Ġcdd": 5992,
      "ĠdBd": 5993,
      "Ġdeb": 5994,
      "ĠdAd": 5995,
      "Ġeegc": 5996,
      "Ġegag": 5997,
      "nment": 5998,
      "Ġfag": 5999,
      "rest": 6000,
      "Ġas": 6001,
      "CEGcC": 6002,
      "FACA": 6003,
      "FAFAF": 6004,
      "EGgg": 6005,
      "sson": 6006,
      "CAB": 6007,
      "CAa": 6008,
      "CAFF": 6009,
      "CAFC": 6010,
      "ens": 6011,
      "247": 6012,
      "DFFD": 6013,
      "ECGD": 6014,
      "BGDE": 6015,
      "BdGd": 6016,
      "BdAd": 6017,
      "BBc": 6018,
      "cecG": 6019,
      "cegC": 6020,
      "CGEG": 6021,
      "CGcG": 6022,
      "cccA": 6023,
      "DDFA": 6024,
      "DDDDD": 6025,
      "222": 6026,
      "FFFB": 6027,
      "GcBe": 6028,
      "ecce": 6029,
      "ecfd": 6030,
      "ecCEG": 6031,
      "AcEA": 6032,
      "368": 6033,
      "fdb": 6034,
      "EFEF": 6035,
      "eef": 6036,
      "eep": 6037,
      "eecc": 6038,
      "GFED": 6039,
      "ffB": 6040,
      "ffE": 6041,
      "ffFA": 6042,
      "cdfg": 6043,
      "GDdDGDdDGD": 6044,
      "fgfe": 6045,
      "CBC": 6046,
      "AFFA": 6047,
      "ggF": 6048,
      "ggGG": 6049,
      "ĠAAGG": 6050,
      "efD": 6051,
      "Eca": 6052,
      "FEDA": 6053,
      "cfe": 6054,
      "dBFB": 6055,
      "cCGE": 6056,
      "cCcc": 6057,
      "cCCAA": 6058,
      "BDc": 6059,
      "gdGG": 6060,
      "GdBG": 6061,
      "GdDB": 6062,
      "BbC": 6063,
      "CcEG": 6064,
      "ĠDDC": 6065,
      "BeGE": 6066,
      "Adfa": 6067,
      "bgA": 6068,
      "705": 6069,
      "ĠedcA": 6070,
      "Ġedge": 6071,
      "ĠccBA": 6072,
      "ACFA": 6073,
      "CFAf": 6074,
      "Ġdefa": 6075,
      "Ġddc": 6076,
      "dgD": 6077,
      "ĠGFEC": 6078,
      "DFAA": 6079,
      "bfC": 6080,
      "gBgD": 6081,
      "oro": 6082,
      "ĠcAce": 6083,
      "Ġgage": 6084,
      "Ġgabd": 6085,
      "EGBegb": 6086,
      "ĠBdfa": 6087,
      "Ġbaga": 6088,
      "ael": 6089,
      "aeAA": 6090,
      "AeaA": 6091,
      "ĠdAFA": 6092,
      "choes": 6093,
      "AceAce": 6094,
      "DFBDFB": 6095,
      "ĠSak": 6096,
      "ĠHan": 6097,
      "come": 6098,
      "ĠTsu": 6099,
      "BFDC": 6100,
      "ĠFBFB": 6101,
      "fcAc": 6102,
      "ompet": 6103,
      "ĠKe": 6104,
      "Ġfgac": 6105,
      "late": 6106,
      "ĠRobert": 6107,
      "iman": 6108,
      "Ġfedf": 6109,
      "cBAB": 6110,
      "ichael": 6111,
      "vers": 6112,
      "Ġdadb": 6113,
      "urse": 6114,
      "GgGg": 6115,
      "EBBE": 6116,
      "FEFE": 6117,
      "track": 6118,
      "FBFBFBFB": 6119,
      "ĠAcef": 6120,
      "ĠSekid": 6121,
      "timpani": 6122,
      "ersion": 6123,
      "ĠWorldMap": 6124,
      "========": 6125,
      "cccCcA": 6126,
      "axenn": 6127,
      "dDGDdDGDdD": 6128,
      "ission": 6129,
      "2701": 6130,
      "percuss": 6131,
      "Andrew": 6132,
      "Ġarrangement": 6133,
      "marimba": 6134,
      "CLARINET": 6135,
      "ĠExtras": 6136,
      "ĠKomatsu": 6137,
      "ĠTakenaka": 6138,
      "=\"--------------------------------------\"": 6139,
      "ĠMercado": 6140,
      "amicom": 6141,
      "ungeon": 6142,
      "GLOCKEN": 6143,
      "ĠAbout": 6144,
      "ĠSekido": 6145,
      "'>_": 6146,
      "/{/_": 6147,
      "AP": 6148,
      "BL": 6149,
      "BEF": 6150,
      "Bow": 6151,
      "BBdd": 6152,
      "Cge": 6153,
      "Comp": 6154,
      "DSw": 6155,
      "Dracula": 6156,
      "En": 6157,
      "Ege": 6158,
      "Eac": 6159,
      "EfB": 6160,
      "EgE": 6161,
      "Fr": 6162,
      "Feb": 6163,
      "Fad": 6164,
      "FCFF": 6165,
      "FdAD": 6166,
      "Fire": 6167,
      "Fiddle": 6168,
      "Gra": 6169,
      "GFFF": 6170,
      "GDAD": 6171,
      "Kit": 6172,
      "Key": 6173,
      "Lo": 6174,
      "Mid": 6175,
      "On": 6176,
      "Pongball": 6177,
      "SM": 6178,
      "Sho": 6179,
      "Six": 6180,
      "Tw": 6181,
      "TRUM": 6182,
      "Ultima": 6183,
      "abg": 6184,
      "aEe": 6185,
      "bfdB": 6186,
      "cEGE": 6187,
      "cCAA": 6188,
      "cBdd": 6189,
      "dGc": 6190,
      "ex": 6191,
      "een": 6192,
      "eFG": 6193,
      "eDd": 6194,
      "fBD": 6195,
      "feBe": 6196,
      "gDE": 6197,
      "gFc": 6198,
      "gAG": 6199,
      "inment": 6200,
      "ohs": 6201,
      "tar": 6202,
      "tom": 6203,
      "vio": 6204,
      "world": 6205,
      "yama": 6206,
      "Ġl": 6207,
      "Ġlo": 6208,
      "Ġ]\"": 6209,
      ",,,,,][_": 6210,
      "ĠGCCG": 6211,
      "ĠGgGg": 6212,
      "ĠAdA": 6213,
      "ĠAaA": 6214,
      "ĠAEGE": 6215,
      "ĠAGBB": 6216,
      "ĠAWE": 6217,
      "ĠDGG": 6218,
      "ĠDGcd": 6219,
      "ĠDcBD": 6220,
      "ĠDBDc": 6221,
      "ĠBDB": 6222,
      "ĠBBAB": 6223,
      "ĠBgdg": 6224,
      "ĠCAA": 6225,
      "ĠCGF": 6226,
      "ĠCFAc": 6227,
      "ĠCCFC": 6228,
      "ĠCurse": 6229,
      "ĠEFAc": 6230,
      "ĠECDE": 6231,
      "ĠEGBc": 6232,
      "ĠFX": 6233,
      "ĠFDFG": 6234,
      "ĠFGFE": 6235,
      "ĠFCFc": 6236,
      "ĠForest": 6237,
      "1685": 6238,
      "Ġcb": 6239,
      "ĠcdA": 6240,
      "ĠcdB": 6241,
      "Ġcdf": 6242,
      "ĠcAda": 6243,
      "ĠcFBF": 6244,
      "ĠcDBc": 6245,
      "ĠdFAd": 6246,
      "ĠdcAc": 6247,
      "ĠdDGD": 6248,
      "Ġdfad": 6249,
      "Ġdecd": 6250,
      "Ġeef": 6251,
      "ĠeBdA": 6252,
      "=\"<": 6253,
      "ĠgcG": 6254,
      "ĠgeBe": 6255,
      "Ġggdg": 6256,
      "ĠfD": 6257,
      "Ġffe": 6258,
      "Ġffc": 6259,
      "Ġfdc": 6260,
      "ĠfBf": 6261,
      "ĠfcAF": 6262,
      "Ġfcfc": 6263,
      "Ġbbc": 6264,
      "Ġbgfc": 6265,
      "Ġbbbbb": 6266,
      "ĠaD": 6267,
      "ĠaAcf": 6268,
      "CECF": 6269,
      "CECG": 6270,
      "CECFE": 6271,
      "EGFA": 6272,
      "EGDF": 6273,
      "GBDD": 6274,
      "GBDd": 6275,
      "FDAA": 6276,
      "FDAF": 6277,
      "1750": 6278,
      "GEEG": 6279,
      "GEBB": 6280,
      "GEBE": 6281,
      "DGdb": 6282,
      "ECGF": 6283,
      "CFd": 6284,
      "CFGc": 6285,
      "CFdc": 6286,
      "CFdfC": 6287,
      "cAGE": 6288,
      "EAa": 6289,
      "EAcea": 6290,
      "EABdD": 6291,
      "''>": 6292,
      "''[_": 6293,
      "''/=": 6294,
      "''''=": 6295,
      "BBBG": 6296,
      "GGDB": 6297,
      "GGGA": 6298,
      "GGee": 6299,
      "DBe": 6300,
      "EBeB": 6301,
      "EEEEE": 6302,
      "ccFF": 6303,
      "ccCc": 6304,
      "cccF": 6305,
      "DAFA": 6306,
      "ebE": 6307,
      "FBgd": 6308,
      "267": 6309,
      "481": 6310,
      "340": 6311,
      "fdCG": 6312,
      "fdAG": 6313,
      "egEB": 6314,
      "eggg": 6315,
      "CDc": 6316,
      "eeeA": 6317,
      "BAe": 6318,
      "BAGE": 6319,
      "BAGEC": 6320,
      "fffF": 6321,
      "cdC": 6322,
      "fae": 6323,
      "FCCF": 6324,
      "445": 6325,
      "449": 6326,
      "GDgdG": 6327,
      "fgF": 6328,
      "CBD": 6329,
      "497": 6330,
      "463": 6331,
      "ggggg": 6332,
      "BFdD": 6333,
      "eBa": 6334,
      "FEcB": 6335,
      "dAGD": 6336,
      "gaf": 6337,
      "dBFG": 6338,
      "dDdd": 6339,
      "aAaA": 6340,
      "dfBg": 6341,
      "ĠBASS": 6342,
      "gdGC": 6343,
      "gcGE": 6344,
      "GdGC": 6345,
      "GdgG": 6346,
      "fece": 6347,
      "Fda": 6348,
      "bac": 6349,
      "ban": 6350,
      "ĠGGec": 6351,
      "Adli": 6352,
      "EeF": 6353,
      "703": 6354,
      "ABf": 6355,
      "Ggec": 6356,
      "ĠCCa": 6357,
      "ĠFFcc": 6358,
      "ĠBcBG": 6359,
      "695": 6360,
      "ĠcBcA": 6361,
      "tainment": 6362,
      "ĠEGce": 6363,
      "dgC": 6364,
      "887": 6365,
      "'']_": 6366,
      "itch": 6367,
      "ittle": 6368,
      "ities": 6369,
      "aaF": 6370,
      "aaGDB": 6371,
      "aaAAAA": 6372,
      "AAAFA": 6373,
      "ĠEFGB": 6374,
      "DFAB": 6375,
      "ĠDFED": 6376,
      "delay": 6377,
      "ĠGBGBGB": 6378,
      "ĠFAGF": 6379,
      "dcBc": 6380,
      "dFFDA": 6381,
      "FCAA": 6382,
      "ĠEAeA": 6383,
      "afcA": 6384,
      "EbD": 6385,
      "ECAE": 6386,
      "EGcgc": 6387,
      "cab": 6388,
      "ĠgfBd": 6389,
      "Ġggdd": 6390,
      "Ġggbb": 6391,
      "fbD": 6392,
      "ĠAFGE": 6393,
      "Ġgdgb": 6394,
      "chi": 6395,
      "day": 6396,
      "ĠMagic": 6397,
      "ĠSui": 6398,
      "ĠHara": 6399,
      "the": 6400,
      "ĠTreble": 6401,
      "ĠTower": 6402,
      "ĠBelspar": 6403,
      "AFDF": 6404,
      "Ġfaga": 6405,
      "ĠLast": 6406,
      "AECD": 6407,
      "elc": 6408,
      "ĠIV": 6409,
      "ĠKod": 6410,
      "ĠBEFBeF": 6411,
      "BDGD": 6412,
      "gecC": 6413,
      "BcdF": 6414,
      "Ġgbgd": 6415,
      "ĠcgGc": 6416,
      "DFDFD": 6417,
      "board": 6418,
      "Acco": 6419,
      "lause": 6420,
      "ĠeEce": 6421,
      "ĠNobu": 6422,
      "imo": 6423,
      "ĠPa": 6424,
      "BGBBB": 6425,
      "Ġdaed": 6426,
      "ĠOu": 6427,
      "ika": 6428,
      "very": 6429,
      "geBE": 6430,
      "DBdE": 6431,
      "urine": 6432,
      "Ġ1998": 6433,
      "Ġ1993": 6434,
      "FEAG": 6435,
      "Ġdedg": 6436,
      "old": 6437,
      "STRU": 6438,
      "Ġmy": 6439,
      "ĠaAgA": 6440,
      "ĠGgdd": 6441,
      "CGGC": 6442,
      "Star": 6443,
      "ĠAcdE": 6444,
      "EegEeg": 6445,
      "shadow": 6446,
      "FfaFfa": 6447,
      "FcdD": 6448,
      "Ġ02": 6449,
      "aeAECG": 6450,
      "ums": 6451,
      "ĠAcAd": 6452,
      "GgbGgb": 6453,
      "Sword": 6454,
      "ĠFGAcfg": 6455,
      "cAECcAE": 6456,
      "dGdGC": 6457,
      "GBeGBeGBe": 6458,
      "nbnet": 6459,
      "agdDD": 6460,
      "ĠTemplate": 6461,
      "ECAEAEECCA": 6462,
      "Corlen": 6463,
      "arrior": 6464,
      "ĠEntertainment": 6465,
      "ĠNaoki": 6466,
      "Mobilehits": 6467,
      "ĠHansson": 6468,
      "ĠTsujiyoko": 6469,
      "Keyboard": 6470,
      "Ġbbbbbbbb": 6471,
      "CECFEE": 6472,
      "Adlib": 6473,
      "ĠKodaka": 6474,
      "ĠNobuyuki": 6475,
      "03": 6476,
      "04": 6477,
      "ACEG": 6478,
      "AaAD": 6479,
      "Ccf": 6480,
      "Cga": 6481,
      "CeC": 6482,
      "CBdBd": 6483,
      "DcB": 6484,
      "DFDA": 6485,
      "Dark": 6486,
      "Double": 6487,
      "EdD": 6488,
      "EaA": 6489,
      "Eae": 6490,
      "EaD": 6491,
      "FeB": 6492,
      "FEc": 6493,
      "FFAF": 6494,
      "Geb": 6495,
      "Ged": 6496,
      "GEGB": 6497,
      "GFAC": 6498,
      "GGEE": 6499,
      "Jun": 6500,
      "NN": 6501,
      "Nintendo": 6502,
      "PET": 6503,
      "Prelude": 6504,
      "To": 6505,
      "Tambo": 6506,
      "Wizard": 6507,
      "ane": 6508,
      "aeC": 6509,
      "agC": 6510,
      "abD": 6511,
      "bEA": 6512,
      "bcc": 6513,
      "bGd": 6514,
      "cDd": 6515,
      "cgB": 6516,
      "dce": 6517,
      "dCC": 6518,
      "deb": 6519,
      "dec": 6520,
      "dFc": 6521,
      "eGF": 6522,
      "eBGG": 6523,
      "eddG": 6524,
      "fEE": 6525,
      "fGC": 6526,
      "fris": 6527,
      "gAF": 6528,
      "gBb": 6529,
      "gAD": 6530,
      "gEGB": 6531,
      "kit": 6532,
      "my": 6533,
      "midi": 6534,
      "mber": 6535,
      "na": 6536,
      "obo": 6537,
      "rass": 6538,
      "tst": 6539,
      "ub": 6540,
      "venture": 6541,
      "xy": 6542,
      "yan": 6543,
      "ĠTra": 6544,
      "Ġhi": 6545,
      "ĠUn": 6546,
      "ĠStandard": 6547,
      "ĠXG": 6548,
      ",,]<[^": 6549,
      "ĠGGB": 6550,
      "ĠGDE": 6551,
      "ĠADB": 6552,
      "ĠADA": 6553,
      "ĠAFG": 6554,
      "ĠAdf": 6555,
      "ĠAFAF": 6556,
      "ĠAEAB": 6557,
      "ĠDBA": 6558,
      "ĠDoc": 6559,
      "ĠBBd": 6560,
      "ĠBEE": 6561,
      "ĠBGFG": 6562,
      "ĠCCD": 6563,
      "ĠCEAE": 6564,
      "ĠEGG": 6565,
      "ĠEGF": 6566,
      "ĠECEC": 6567,
      "ĠEGAG": 6568,
      "ĠEceE": 6569,
      "ĠFg": 6570,
      "ĠFFD": 6571,
      "ĠFGC": 6572,
      "ĠFdc": 6573,
      "ĠFamicom": 6574,
      "ĠcGFC": 6575,
      "Ġccee": 6576,
      "ĠcFFc": 6577,
      "ĠdAc": 6578,
      "ĠddA": 6579,
      "ĠdAB": 6580,
      "Ġdced": 6581,
      "Ġecd": 6582,
      "ĠeeB": 6583,
      "ĠeAce": 6584,
      "=\"@": 6585,
      "Ġgff": 6586,
      "Ġggf": 6587,
      "Ġgfc": 6588,
      "Ġfgc": 6589,
      "Ġfefe": 6590,
      "ĠbG": 6591,
      ",,/>=": 6592,
      "reo": 6593,
      "Ġafa": 6594,
      "ĠaeA": 6595,
      "Ġagd": 6596,
      "Ġaba": 6597,
      "']>[_": 6598,
      "']<=": 6599,
      "Ġst": 6600,
      "FACD": 6601,
      "GBeA": 6602,
      "GBgb": 6603,
      "ics": 6604,
      "FDGG": 6605,
      "DFe": 6606,
      "DGe": 6607,
      "DGDB": 6608,
      "DGdB": 6609,
      "ECFD": 6610,
      "CFe": 6611,
      "CFFd": 6612,
      "BGFB": 6613,
      "ince": 6614,
      "BdGG": 6615,
      "Bdbg": 6616,
      "''(": 6617,
      "''''_": 6618,
      "BBbb": 6619,
      "ceGG": 6620,
      "ceAA": 6621,
      "GGCE": 6622,
      "GGdd": 6623,
      "GGgg": 6624,
      "GGcC": 6625,
      "GGCEG": 6626,
      "CCCE": 6627,
      "CCCF": 6628,
      "DBb": 6629,
      "251": 6630,
      "EEee": 6631,
      "ccdd": 6632,
      "cccCc": 6633,
      "ccCEc": 6634,
      "FFd": 6635,
      "FFCA": 6636,
      "DAda": 6637,
      "nori": 6638,
      "275": 6639,
      "ect": 6640,
      "ecGc": 6641,
      "raggm": 6642,
      "'/>": 6643,
      "egbe": 6644,
      "GAGc": 6645,
      "GABe": 6646,
      "CDEA": 6647,
      "EFGG": 6648,
      "eea": 6649,
      "eeff": 6650,
      "GFf": 6651,
      "dde": 6652,
      "ddg": 6653,
      "ffG": 6654,
      "fffa": 6655,
      "cdcA": 6656,
      "edg": 6657,
      "faG": 6658,
      "FCaAfA": 6659,
      "EDg": 6660,
      "BcGE": 6661,
      "BcBA": 6662,
      "FGAc": 6663,
      "GCcG": 6664,
      "AFcF": 6665,
      "efA": 6666,
      "gaba": 6667,
      "dBa": 6668,
      "cGd": 6669,
      "cCe": 6670,
      "BDdfG": 6671,
      "geoc": 6672,
      "ario": 6673,
      "eEee": 6674,
      "bbD": 6675,
      "gcgc": 6676,
      "ĠGABA": 6677,
      "feG": 6678,
      "fea": 6679,
      "fcFA": 6680,
      "ĠGGFF": 6681,
      "FfGg": 6682,
      "ial": 6683,
      "700": 6684,
      "eaF": 6685,
      "ĠcdcA": 6686,
      "gbeB": 6687,
      "fFff": 6688,
      "ĠFFCC": 6689,
      "688": 6690,
      "GeD": 6691,
      "DGBeE": 6692,
      "aaC": 6693,
      "DFAF": 6694,
      "ĠDAFA": 6695,
      "ĠGBEG": 6696,
      "oru": 6697,
      "ĠcAEA": 6698,
      "ĠcAGF": 6699,
      "ĠcAGD": 6700,
      "ECAA": 6701,
      "caE": 6702,
      "ĠBdcE": 6703,
      "Ġbaba": 6704,
      "Ġbabg": 6705,
      "BgA": 6706,
      "cGECG": 6707,
      "GBdE": 6708,
      "GBdGBd": 6709,
      "agi": 6710,
      "FAdE": 6711,
      "choro": 6712,
      "ĠMal": 6713,
      "ĠMits": 6714,
      "ĠHam": 6715,
      "ĠcGEG": 6716,
      "cccCC": 6717,
      "GCEc": 6718,
      "emco": 6719,
      "ĠdgBd": 6720,
      "ĠLa": 6721,
      "ĠGdBd": 6722,
      "ĠKemco": 6723,
      "Ġfgag": 6724,
      "GEGEGE": 6725,
      "Ġafcf": 6726,
      "ĠRyou": 6727,
      "ĠPrevost": 6728,
      "Originally": 6729,
      "cCCc": 6730,
      "David": 6731,
      "ĠOohs": 6732,
      "CHOR": 6733,
      "ĠMason": 6734,
      "aecGECad": 6735,
      "roy": 6736,
      "Ġdddc": 6737,
      "Bcef": 6738,
      "ollow": 6739,
      "bbbbFb": 6740,
      "ecEege": 6741,
      "ĠVillage": 6742,
      "....": 6743,
      "ĠChords": 6744,
      "troid": 6745,
      "Seq": 6746,
      "Seika": 6747,
      "Ġ:)\"": 6748,
      "Backup": 6749,
      "voca": 6750,
      "torJ": 6751,
      "Bottle": 6752,
      "ĠSynthesizer": 6753,
      "ORN": 6754,
      "Shannon": 6755,
      "Cymbal": 6756,
      "vasion": 6757,
      "ĠEgM": 6758,
      "CACACA": 6759,
      "ĠShand": 6760,
      "orgue": 6761,
      "Sonic": 6762,
      "Ġdccd": 6763,
      "cGcGcGEEE": 6764,
      "Stereo": 6765,
      "Concerns": 6766,
      "kasta": 6767,
      "ĠKeys": 6768,
      "TRUMPET": 6769,
      "Accoustic": 6770,
      "frisbee": 6771,
      "oboe": 6772,
      "ĠDoctorJ": 6773,
      "raggmunk": 6774,
      "geocities": 6775,
      "'>=": 6776,
      ",{/": 6777,
      "2237": 6778,
      "523": 6779,
      "541": 6780,
      "727": 6781,
      "740": 6782,
      "Ageg": 6783,
      "Bit": 6784,
      "Bas": 6785,
      "BDAD": 6786,
      "CBG": 6787,
      "CBd": 6788,
      "Cac": 6789,
      "Counter": 6790,
      "Dfd": 6791,
      "DCc": 6792,
      "DeG": 6793,
      "DgC": 6794,
      "DDFF": 6795,
      "Egg": 6796,
      "EcAA": 6797,
      "EEAE": 6798,
      "FR": 6799,
      "FECG": 6800,
      "Fac": 6801,
      "Faf": 6802,
      "GMusic": 6803,
      "GfD": 6804,
      "Grd": 6805,
      "Ice": 6806,
      "Known": 6807,
      "Las": 6808,
      "Long": 6809,
      "MP": 6810,
      "Mo": 6811,
      "Mother": 6812,
      "OM": 6813,
      "OON": 6814,
      "OBO": 6815,
      "Pa": 6816,
      "Pro": 6817,
      "TO": 6818,
      "Tel": 6819,
      "Vania": 6820,
      "Wave": 6821,
      "What": 6822,
      "aef": 6823,
      "adD": 6824,
      "aceA": 6825,
      "ater": 6826,
      "beg": 6827,
      "bAF": 6828,
      "bBF": 6829,
      "baA": 6830,
      "beE": 6831,
      "bebe": 6832,
      "ci": 6833,
      "cFAD": 6834,
      "cri": 6835,
      "dge": 6836,
      "deA": 6837,
      "eDG": 6838,
      "eBd": 6839,
      "eFC": 6840,
      "fCE": 6841,
      "fGG": 6842,
      "fFE": 6843,
      "fEe": 6844,
      "gCA": 6845,
      "gBF": 6846,
      "gDGB": 6847,
      "guit": 6848,
      "harmony": 6849,
      "ky": 6850,
      "nai": 6851,
      "ool": 6852,
      "ooff": 6853,
      "ph": 6854,
      "pi": 6855,
      "patch": 6856,
      "uth": 6857,
      "uto": 6858,
      "wave": 6859,
      "warm": 6860,
      "Ġ?\"": 6861,
      "Ġone": 6862,
      "Ġhat": 6863,
      ",,,,]^": 6864,
      ",,,,,]/": 6865,
      "ĠGb": 6866,
      "ĠGdf": 6867,
      "ĠGdg": 6868,
      "ĠGeee": 6869,
      "ĠGDGA": 6870,
      "ĠAFF": 6871,
      "ĠAAc": 6872,
      "ĠAFAd": 6873,
      "ĠAceg": 6874,
      "ĠDEA": 6875,
      "ĠDEE": 6876,
      "ĠDEGB": 6877,
      "ĠDBdB": 6878,
      "ĠDEGA": 6879,
      "ĠDGdg": 6880,
      "ĠDFBc": 6881,
      "ĠBdc": 6882,
      "ĠBFDC": 6883,
      "ĠCave": 6884,
      "ĠCCFF": 6885,
      "ĠEr": 6886,
      "ĠEBE": 6887,
      "ĠEGBG": 6888,
      "ĠEFDF": 6889,
      "ĠFCG": 6890,
      "ĠFec": 6891,
      "ĠFAB": 6892,
      "ĠField": 6893,
      "ĠcBG": 6894,
      "ĠcAB": 6895,
      "ĠcGdG": 6896,
      "ĠcGde": 6897,
      "ĠcEFc": 6898,
      "ĠcCBC": 6899,
      "Ġddf": 6900,
      "ĠdAG": 6901,
      "ĠdGBe": 6902,
      "ĠdGcG": 6903,
      "ĠeEA": 6904,
      "Ġefa": 6905,
      "Ġega": 6906,
      "Ġegdg": 6907,
      "ĠecAf": 6908,
      "=\"'": 6909,
      "ĠggG": 6910,
      "Ġgad": 6911,
      "ĠgBdg": 6912,
      "Ġgceg": 6913,
      "ĠgGgG": 6914,
      "Ġbgg": 6915,
      "Ġbea": 6916,
      "Ġbfb": 6917,
      "Ġback": 6918,
      "Ġbfdc": 6919,
      "Ġbrass": 6920,
      "ream": 6921,
      "Ġabe": 6922,
      "Ġaag": 6923,
      "]/<[": 6924,
      "]/>=": 6925,
      "CEb": 6926,
      "CEeC": 6927,
      "FAaC": 6928,
      "EGb": 6929,
      "EGcA": 6930,
      "EGeg": 6931,
      "1439": 6932,
      "CAd": 6933,
      "CAcF": 6934,
      "ening": 6935,
      "GEAF": 6936,
      "DGdG": 6937,
      "ECd": 6938,
      "ECGA": 6939,
      "CFFA": 6940,
      "CFfc": 6941,
      "cAGF": 6942,
      "cAeE": 6943,
      "cAECB": 6944,
      "ingd": 6945,
      "rave": 6946,
      "ceCA": 6947,
      "GGd": 6948,
      ",,]/(": 6949,
      "AADD": 6950,
      "CCCB": 6951,
      "323": 6952,
      "EBeE": 6953,
      "259": 6954,
      "EECA": 6955,
      "EEEA": 6956,
      "DDGB": 6957,
      "FFCC": 6958,
      "comp": 6959,
      "DAGA": 6960,
      "280": 6961,
      "ebb": 6962,
      "FBDA": 6963,
      "FBcf": 6964,
      "FBeE": 6965,
      "260": 6966,
      "293": 6967,
      "Ġ27": 6968,
      "274": 6969,
      "aker": 6970,
      "ech": 6971,
      "ecCA": 6972,
      "ecCC": 6973,
      "ecGECG": 6974,
      "487": 6975,
      "AcFF": 6976,
      "fdBd": 6977,
      "fdGdG": 6978,
      "egac": 6979,
      "GAGA": 6980,
      "352": 6981,
      "eeAB": 6982,
      "GFe": 6983,
      "GFCG": 6984,
      "GFEF": 6985,
      "ffFG": 6986,
      "cdF": 6987,
      "FCf": 6988,
      "fgG": 6989,
      "AFf": 6990,
      "ggBD": 6991,
      "BFe": 6992,
      "eBC": 6993,
      "eBfF": 6994,
      "eBGEB": 6995,
      "cfAF": 6996,
      "cfbB": 6997,
      "gaA": 6998,
      "cGCD": 6999,
      "cGgdC": 7000,
      "BDGB": 7001,
      "gecA": 7002,
      "geGC": 7003,
      "eAd": 7004,
      "eEd": 7005,
      "DdDA": 7006,
      "gfE": 7007,
      "gcGc": 7008,
      "Ccg": 7009,
      "ADfF": 7010,
      "gGdD": 7011,
      "DEd": 7012,
      "bdad": 7013,
      "osed": 7014,
      "Adventure": 7015,
      "bgec": 7016,
      "FcCA": 7017,
      "GgGG": 7018,
      "GgDd": 7019,
      "ĠCDED": 7020,
      "ĠCCCE": 7021,
      "gbA": 7022,
      "ĠdcBF": 7023,
      "PianoGrd": 7024,
      "ĠBcgB": 7025,
      "Ġccff": 7026,
      "CFAff": 7027,
      "CFAcF": 7028,
      "adF": 7029,
      "Ġddg": 7030,
      "ĠEGCE": 7031,
      "ĠEGDF": 7032,
      "dgcf": 7033,
      "aaE": 7034,
      "ĠEFGF": 7035,
      "StringEns": 7036,
      "ĠDFEF": 7037,
      "dGa": 7038,
      "dGDB": 7039,
      "fBg": 7040,
      "fBeB": 7041,
      "ĠeeAA": 7042,
      "ĠDGFD": 7043,
      "ana": 7044,
      "any": 7045,
      "organ": 7046,
      "ortal": 7047,
      "fDfD": 7048,
      "ĠcAe": 7049,
      "Ġgaeg": 7050,
      "EbF": 7051,
      "Ebmin": 7052,
      "bell": 7053,
      "ĠBdgd": 7054,
      "ĠffAA": 7055,
      "ruary": 7056,
      "BfC": 7057,
      "ĠEBEB": 7058,
      "cgE": 7059,
      "ĠdBeB": 7060,
      "ĠECCF": 7061,
      "ĠECDB": 7062,
      "ĠGDCA": 7063,
      "Cell": 7064,
      "ĠGcgG": 7065,
      "daB": 7066,
      "Ġcece": 7067,
      "ĠceAc": 7068,
      "GGGccc": 7069,
      "ĠMike": 7070,
      "ĠSon": 7071,
      "ĠSong": 7072,
      "ĠHe": 7073,
      "ĠHigh": 7074,
      "Ġdfbc": 7075,
      "GceA": 7076,
      "GceE": 7077,
      "unter": 7078,
      "ption": 7079,
      "ĠTonk": 7080,
      "ecAG": 7081,
      "igi": 7082,
      "Ġacgc": 7083,
      "ĠWooff": 7084,
      "ecGCC": 7085,
      "Ġbgec": 7086,
      "nder": 7087,
      "elcome": 7088,
      "dBGg": 7089,
      "ĠKa": 7090,
      "Ġeaea": 7091,
      "ĠBEBd": 7092,
      "DEGd": 7093,
      "joy": 7094,
      "She": 7095,
      "ird": 7096,
      "GEGGG": 7097,
      "EAdEA": 7098,
      "ĠdGeG": 7099,
      "iceX": 7100,
      "ĠPr": 7101,
      "animent": 7102,
      "Bafd": 7103,
      "Bajo": 7104,
      "dGBf": 7105,
      "Violino": 7106,
      "cfaF": 7107,
      "CDGcF": 7108,
      "CHOI": 7109,
      "ADFC": 7110,
      "GGGGGG": 7111,
      "Guitarra": 7112,
      "estions": 7113,
      "Ġ1992": 7114,
      "Mail": 7115,
      "ĠBlack": 7116,
      "avar": 7117,
      "Rexy": 7118,
      "ĠGDBD": 7119,
      "GeBE": 7120,
      "Ġ2005": 7121,
      "antasia": 7122,
      "Suke": 7123,
      "ĠVGMusic": 7124,
      "ĠYasu": 7125,
      "EegE": 7126,
      "ĠGBdBGF": 7127,
      "Fcdef": 7128,
      "Ġhorn": 7129,
      "afaaaf": 7130,
      "ĠInvasion": 7131,
      "berto": 7132,
      "Wood": 7133,
      "ugh": 7134,
      "=\"--\"": 7135,
      "wooff": 7136,
      "ĠAlberto": 7137,
      "EdEd": 7138,
      "gddg": 7139,
      "ĠIsland": 7140,
      "ACEAEECCA": 7141,
      "ĠKids": 7142,
      "ĠForums": 7143,
      "Single": 7144,
      "Tyler": 7145,
      "ĠTakagi": 7146,
      "Upper": 7147,
      "Ġmap": 7148,
      "Bowed": 7149,
      "SMB": 7150,
      "exus": 7151,
      "ĠOuyama": 7152,
      "Tambourine": 7153,
      "Wizardry": 7154,
      "ĠMaliceX": 7155,
      "ĠMitsuda": 7156,
      "ĠRyoue": 7157,
      "CHORD": 7158,
      "vocal": 7159,
      "Laser": 7160,
      "Telavar": 7161,
      "ingdom": 7162,
      "CHOIR": 7163,
      "Sukezo": 7164,
      "!!\"": 7165,
      "/<_": 7166,
      "/>=": 7167,
      "313": 7168,
      ">>": 7169,
      "??": 7170,
      "Age": 7171,
      "ABE": 7172,
      "AGd": 7173,
      "AgG": 7174,
      "All": 7175,
      "ABdB": 7176,
      "Aeda": 7177,
      "BCB": 7178,
      "Bfc": 7179,
      "BEGB": 7180,
      "BBGG": 7181,
      "BFAF": 7182,
      "Base": 7183,
      "CBB": 7184,
      "CCEG": 7185,
      "CbB": 7186,
      "CdF": 7187,
      "CGEB": 7188,
      "CfG": 7189,
      "Cal": 7190,
      "Crystal": 7191,
      "Dee": 7192,
      "EfF": 7193,
      "EPiano": 7194,
      "EFAF": 7195,
      "Fed": 7196,
      "Fge": 7197,
      "FeA": 7198,
      "FeE": 7199,
      "Fba": 7200,
      "FaE": 7201,
      "Ffff": 7202,
      "Gff": 7203,
      "GecG": 7204,
      "GCGC": 7205,
      "Guit": 7206,
      "Hand": 7207,
      "ICK": 7208,
      "Ko": 7209,
      "Link": 7210,
      "Legend": 7211,
      "LINE": 7212,
      "MA": 7213,
      "MC": 7214,
      "PAD": 7215,
      "Ride": 7216,
      "SA": 7217,
      "Sy": 7218,
      "TI": 7219,
      "Trum": 7220,
      "Tonk": 7221,
      "Written": 7222,
      "ah": 7223,
      "afB": 7224,
      "acfF": 7225,
      "bGE": 7226,
      "bDG": 7227,
      "bCG": 7228,
      "begEG": 7229,
      "beat": 7230,
      "cgg": 7231,
      "cEEE": 7232,
      "cCFF": 7233,
      "cFdF": 7234,
      "cEGcEGc": 7235,
      "do": 7236,
      "dEF": 7237,
      "dee": 7238,
      "deG": 7239,
      "eBc": 7240,
      "ecAE": 7241,
      "fBE": 7242,
      "gCF": 7243,
      "gED": 7244,
      "gef": 7245,
      "gECC": 7246,
      "high": 7247,
      "imp": 7248,
      "ko": 7249,
      "made": 7250,
      "mond": 7251,
      "ning": 7252,
      "row": 7253,
      "si": 7254,
      "sq": 7255,
      "tin": 7256,
      "ttp": 7257,
      "ved": 7258,
      "word": 7259,
      "Ġ30": 7260,
      "ĠOcarina": 7261,
      "ĠQu": 7262,
      "Ġyou": 7263,
      "Ġvers": 7264,
      ",,,,/": 7265,
      ",,,,-]": 7266,
      ",,{/[": 7267,
      "ĠGGD": 7268,
      "ĠGCEG": 7269,
      "ĠGBAG": 7270,
      "ĠGGEE": 7271,
      "ĠGGcG": 7272,
      "ĠGTR": 7273,
      "ĠAn": 7274,
      "ĠAcdc": 7275,
      "ĠAcBE": 7276,
      "ĠDAd": 7277,
      "ĠDFc": 7278,
      "ĠDEDC": 7279,
      "ĠDFBF": 7280,
      "ĠDelay": 7281,
      "ĠDungeon": 7282,
      "ĠBGG": 7283,
      "ĠCe": 7284,
      "ĠCtr": 7285,
      "ĠCGc": 7286,
      "ĠCGd": 7287,
      "ĠChi": 7288,
      "ĠElec": 7289,
      "ĠEGe": 7290,
      "ĠEnd": 7291,
      "ĠFEE": 7292,
      "ĠFinal": 7293,
      "ĠFingered": 7294,
      "ĠFile": 7295,
      "Ġceb": 7296,
      "Ġccf": 7297,
      "Ġcgf": 7298,
      "Ġcomposed": 7299,
      "ĠcAAF": 7300,
      "ĠdGB": 7301,
      "ĠdAF": 7302,
      "Ġdgc": 7303,
      "ĠdAcd": 7304,
      "ĠecB": 7305,
      "ĠeEAdEA": 7306,
      "1285": 7307,
      "=\".\"": 7308,
      "Ġfeg": 7309,
      "Ġffa": 7310,
      "Ġfgd": 7311,
      "ĠffA": 7312,
      "Ġbel": 7313,
      "record": 7314,
      ",/<^": 7315,
      "ĠaBgB": 7316,
      "CECEG": 7317,
      "CEeE": 7318,
      "Ġstr": 7319,
      "FAAc": 7320,
      "EGBG": 7321,
      "EGdC": 7322,
      "1454": 7323,
      "GBcE": 7324,
      "CAFA": 7325,
      "CAGE": 7326,
      "CAFB": 7327,
      "enjoy": 7328,
      "241": 7329,
      "248": 7330,
      "FDa": 7331,
      "FDDF": 7332,
      "FDFd": 7333,
      "FDAG": 7334,
      "DFb": 7335,
      "DGcG": 7336,
      "ECFA": 7337,
      "ECcG": 7338,
      "CFcA": 7339,
      "cAEG": 7340,
      "cADG": 7341,
      "cAfF": 7342,
      "EAf": 7343,
      "EAeA": 7344,
      "BGCE": 7345,
      "BGeA": 7346,
      "BdGB": 7347,
      "BdFD": 7348,
      "''/-": 7349,
      "ceEA": 7350,
      "ceCC": 7351,
      "ceAa": 7352,
      "CCcC": 7353,
      "CCCCC": 7354,
      "EBAB": 7355,
      "256": 7356,
      "cca": 7357,
      "ccEC": 7358,
      "DDCC": 7359,
      "tris": 7360,
      "FFg": 7361,
      "DAe": 7362,
      "DAcdf": 7363,
      "nother": 7364,
      "ebG": 7365,
      "GcCe": 7366,
      "301": 7367,
      "290": 7368,
      "271": 7369,
      "ecEC": 7370,
      "ecGEC": 7371,
      "Acfa": 7372,
      "AcdD": 7373,
      "AcfA": 7374,
      "'/[=": 7375,
      "fdBD": 7376,
      "egAc": 7377,
      "egGC": 7378,
      "GADB": 7379,
      "GAdAd": 7380,
      "CDd": 7381,
      "CDFD": 7382,
      "CDGE": 7383,
      "CDCB": 7384,
      "EFcF": 7385,
      "eet": 7386,
      "eeed": 7387,
      "ddDB": 7388,
      "ffAF": 7389,
      "ffGCA": 7390,
      "cdAd": 7391,
      ",,,/[^": 7392,
      "fare": 7393,
      "FCd": 7394,
      "EDa": 7395,
      "EDd": 7396,
      "EDCD": 7397,
      "BcGF": 7398,
      "FGe": 7399,
      "FGg": 7400,
      "fgC": 7401,
      "fgD": 7402,
      "fgac": 7403,
      "457": 7404,
      "465": 7405,
      "GCf": 7406,
      "AFa": 7407,
      "AFCG": 7408,
      "AFdD": 7409,
      "ggBDB": 7410,
      "ggecGECad": 7411,
      "ggestions": 7412,
      "cBb": 7413,
      "efE": 7414,
      "FEFF": 7415,
      "dAFF": 7416,
      "cfB": 7417,
      "cfFA": 7418,
      "dBf": 7419,
      "dBGE": 7420,
      "603": 7421,
      "cGeC": 7422,
      "cCf": 7423,
      "aAB": 7424,
      "aADF": 7425,
      "aADE": 7426,
      "eAg": 7427,
      "eAaA": 7428,
      "CEGEG": 7429,
      "eEg": 7430,
      "Ddg": 7431,
      "DdFF": 7432,
      "DdGDB": 7433,
      "ĠBAE": 7434,
      "gdE": 7435,
      "gfb": 7436,
      "bbBB": 7437,
      "bbbA": 7438,
      "ĠGAd": 7439,
      "BbGg": 7440,
      "808": 7441,
      "FdDB": 7442,
      "Aag": 7443,
      "bdF": 7444,
      "back": 7445,
      "ĠDDCA": 7446,
      "BeD": 7447,
      "oshi": 7448,
      "AdeA": 7449,
      "bgF": 7450,
      "bgdD": 7451,
      "FcFc": 7452,
      "cEd": 7453,
      "ABg": 7454,
      "gbGB": 7455,
      "Ġtranscri": 7456,
      "']/=": 7457,
      "fAe": 7458,
      "CEAC": 7459,
      "ĠcccA": 7460,
      "ACa": 7461,
      "ACd": 7462,
      "ĠcBGE": 7463,
      "tan": 7464,
      "ĠEDED": 7465,
      "ĠddAA": 7466,
      "ĠEGAc": 7467,
      "dgE": 7468,
      "DGBe": 7469,
      "aae": 7470,
      "aadAD": 7471,
      "DCd": 7472,
      "ĠDAFD": 7473,
      "ĠDFEG": 7474,
      "fBgB": 7475,
      "'-]/": 7476,
      "anfare": 7477,
      "lone": 7478,
      "ĠGBeg": 7479,
      "gBgB": 7480,
      "oring": 7481,
      "afcf": 7482,
      "fDg": 7483,
      "EbC": 7484,
      "belspar": 7485,
      "Click": 7486,
      "ĠBdfg": 7487,
      "BfGd": 7488,
      "BfFd": 7489,
      "Ġbafa": 7490,
      "Ġbabf": 7491,
      "ĠdAef": 7492,
      "ĠAFEF": 7493,
      "ĠBGM": 7494,
      "ĠfdBF": 7495,
      "Ġfdef": 7496,
      "CeaA": 7497,
      "chord": 7498,
      "channel": 7499,
      "chestra": 7500,
      "Inside": 7501,
      "AceE": 7502,
      "eDe": 7503,
      "ĠMin": 7504,
      "ĠMoon": 7505,
      "ĠMenu": 7506,
      "fGfB": 7507,
      "ĠSte": 7508,
      "GfE": 7509,
      "Ġdfef": 7510,
      "Ġgcgf": 7511,
      "GceGce": 7512,
      "Ġeged": 7513,
      "ilver": 7514,
      "ĠFCcC": 7515,
      "cccEGEGEG": 7516,
      "vember": 7517,
      "alk": 7518,
      "bFb": 7519,
      "ĠTH": 7520,
      "ĠTw": 7521,
      "ĠTenor": 7522,
      "star": 7523,
      "hore": 7524,
      "ĠWizard": 7525,
      "ĠWarrior": 7526,
      "Troy": 7527,
      "Trompet": 7528,
      "AFDd": 7529,
      "main": 7530,
      "ĠFBfB": 7531,
      "CGEc": 7532,
      "arine": 7533,
      "fcAC": 7534,
      "ĠIN": 7535,
      "dBGDG": 7536,
      "ĠKON": 7537,
      "ator": 7538,
      "Squarewave": 7539,
      "Vox": 7540,
      "fedA": 7541,
      "AEAE": 7542,
      "ĠPro": 7543,
      "aniel": 7544,
      "BGBB": 7545,
      "ĠGeorge": 7546,
      "007": 7547,
      "ĠEcBc": 7548,
      "Alt": 7549,
      "FcAC": 7550,
      "fFFcCCAA": 7551,
      "''''][_": 7552,
      "Ġ1988": 7553,
      "Ġ1989": 7554,
      "Ġ1994": 7555,
      "Ġ1997": 7556,
      "Ġagad": 7557,
      "efgA": 7558,
      "CAcaA": 7559,
      "GAcd": 7560,
      "BgdG": 7561,
      "Ġ2009": 7562,
      "ggGgggg": 7563,
      "oog": 7564,
      "ARI": 7565,
      "Suggestions": 7566,
      "ĠVall": 7567,
      "Accordian": 7568,
      "ones": 7569,
      "ĠFDBA": 7570,
      "EDDC": 7571,
      "BASSLINE": 7572,
      "Lower": 7573,
      "Ġwas": 7574,
      "Ġwith": 7575,
      "GfcF": 7576,
      "Ġpart": 7577,
      "awa": 7578,
      "daADA": 7579,
      "ĠSupport": 7580,
      "CastleVania": 7581,
      "afFCA": 7582,
      "lenbelspar": 7583,
      "aaaaaa": 7584,
      "ecGECadgg": 7585,
      "ĠEAcEAc": 7586,
      "ountain": 7587,
      "Distorted": 7588,
      "Ġnylon": 7589,
      "2702": 7590,
      "cordes": 7591,
      "corlenbelspar": 7592,
      "John": 7593,
      "Charang": 7594,
      "ĠRoom": 7595,
      "ĠTemple": 7596,
      "ACEAEECC": 7597,
      "~~~~": 7598,
      "reath": 7599,
      "ĠLove": 7600,
      "midiman": 7601,
      "Hammond": 7602,
      "AMI": 7603,
      "Ending": 7604,
      "eneral": 7605,
      "dAADAA": 7606,
      "ystical": 7607,
      "ilor": 7608,
      "February": 7609,
      "violon": 7610,
      "GEGEGEccc": 7611,
      "OBOE": 7612,
      "ĠYasunori": 7613,
      "Caliope": 7614,
      "ttprevost": 7615,
      "recorded": 7616,
      "ĠKONAMI": 7617,
      "ĠVallant": 7618,
      ".)\"": 7619,
      "01": 7620,
      "415": 7621,
      "959": 7622,
      "Air": 7623,
      "AcAe": 7624,
      "AGAG": 7625,
      "Bon": 7626,
      "BaC": 7627,
      "Bongo": 7628,
      "BaaGDB": 7629,
      "CbD": 7630,
      "CgGg": 7631,
      "Cred": 7632,
      "Cgege": 7633,
      "CBAE": 7634,
      "Do": 7635,
      "Dfg": 7636,
      "Dbd": 7637,
      "DEGc": 7638,
      "Dddd": 7639,
      "Edf": 7640,
      "EfA": 7641,
      "ECEA": 7642,
      "Edc": 7643,
      "Faa": 7644,
      "FbC": 7645,
      "FddD": 7646,
      "GCEA": 7647,
      "GfC": 7648,
      "GggG": 7649,
      "General": 7650,
      "Hits": 7651,
      "Kor": 7652,
      "Mega": 7653,
      "RD": 7654,
      "SQ": 7655,
      "So": 7656,
      "Song": 7657,
      "Sque": 7658,
      "VI": 7659,
      "VO": 7660,
      "Ver": 7661,
      "Version": 7662,
      "We": 7663,
      "aGc": 7664,
      "aFC": 7665,
      "acF": 7666,
      "aDAF": 7667,
      "bCC": 7668,
      "bEE": 7669,
      "bGA": 7670,
      "bfa": 7671,
      "bBD": 7672,
      "beA": 7673,
      "bBb": 7674,
      "bBe": 7675,
      "bom": 7676,
      "cFAc": 7677,
      "cbG": 7678,
      "cfac": 7679,
      "cGcG": 7680,
      "dEE": 7681,
      "dcc": 7682,
      "dgg": 7683,
      "deB": 7684,
      "dga": 7685,
      "dFf": 7686,
      "dbf": 7687,
      "dFDB": 7688,
      "dBdF": 7689,
      "eCB": 7690,
      "eDE": 7691,
      "eFf": 7692,
      "eCCC": 7693,
      "eFcD": 7694,
      "fBe": 7695,
      "fECG": 7696,
      "feBGE": 7697,
      "gcd": 7698,
      "gcAF": 7699,
      "gBGG": 7700,
      "gcGe": 7701,
      "her": 7702,
      "ius": 7703,
      "ira": 7704,
      "ited": 7705,
      "kada": 7706,
      "lass": 7707,
      "nr": 7708,
      "ps": 7709,
      "ped": 7710,
      "pick": 7711,
      "ty": 7712,
      "uz": 7713,
      "uke": 7714,
      "uary": 7715,
      "vin": 7716,
      "way": 7717,
      "wind": 7718,
      "ye": 7719,
      "yop": 7720,
      "ze": 7721,
      "Ġ2002": 7722,
      "Ġline": 7723,
      ",,,,,/": 7724,
      "ĠGS": 7725,
      "ĠGDF": 7726,
      "ĠGEE": 7727,
      "ĠGFF": 7728,
      "ĠGDGB": 7729,
      "ĠGCGc": 7730,
      "ĠGEGA": 7731,
      "ĠGDGd": 7732,
      "ĠADD": 7733,
      "ĠAFB": 7734,
      "ĠAff": 7735,
      "ĠAFE": 7736,
      "ĠAECG": 7737,
      "ĠABBB": 7738,
      "ĠAaf": 7739,
      "ĠAEEE": 7740,
      "ĠAnd": 7741,
      "ĠAafc": 7742,
      "ĠAdAE": 7743,
      "ĠAeGe": 7744,
      "ĠAAcB": 7745,
      "ĠACACACA": 7746,
      "ĠAuth": 7747,
      "ĠAlone": 7748,
      "ĠDa": 7749,
      "ĠDEC": 7750,
      "ĠDBd": 7751,
      "ĠDDB": 7752,
      "ĠDGd": 7753,
      "ĠDDGD": 7754,
      "ĠDFAF": 7755,
      "ĠDddG": 7756,
      "ĠDream": 7757,
      "ĠBGc": 7758,
      "ĠBdA": 7759,
      "ĠBEEE": 7760,
      "ĠBCFC": 7761,
      "ĠBaBa": 7762,
      "ĠCcA": 7763,
      "ĠCEE": 7764,
      "ĠCGC": 7765,
      "ĠCFCA": 7766,
      "ĠCEDC": 7767,
      "ĠCEBA": 7768,
      "ĠCffC": 7769,
      "ĠCity": 7770,
      "ĠEBA": 7771,
      "ĠEBe": 7772,
      "ĠEFc": 7773,
      "ĠEGEB": 7774,
      "ĠEcAc": 7775,
      "ĠEGcG": 7776,
      "ĠEEFE": 7777,
      "ĠEchoes": 7778,
      "ĠFGc": 7779,
      "ĠFCB": 7780,
      "ĠFBF": 7781,
      "ĠFdA": 7782,
      "ĠFECG": 7783,
      "ĠFdF": 7784,
      "ĠFFAc": 7785,
      "ĠFddd": 7786,
      "ĠFFGC": 7787,
      "ĠcBB": 7788,
      "ĠcAD": 7789,
      "ĠcBGD": 7790,
      "ĠcEFA": 7791,
      "ĠceBe": 7792,
      "ĠcEcE": 7793,
      "Ġcomments": 7794,
      "ĠcAAc": 7795,
      "ĠdDG": 7796,
      "Ġdgg": 7797,
      "ĠdBE": 7798,
      "ĠdBAG": 7799,
      "Ġdfga": 7800,
      "Ġdfac": 7801,
      "Ġdgdg": 7802,
      "ĠdAFE": 7803,
      "ĠeAa": 7804,
      "Ġeac": 7805,
      "ĠecAe": 7806,
      "Ġegfe": 7807,
      "Ġegbe": 7808,
      "ĠeBbB": 7809,
      "ĠeFdF": 7810,
      "ĠeBBe": 7811,
      "Ġeade": 7812,
      "ĠecAd": 7813,
      "=\"**": 7814,
      "=\"****************": 7815,
      "ĠgfdB": 7816,
      "Ġgddg": 7817,
      "Ġfgb": 7818,
      "ĠffF": 7819,
      "Ġfcec": 7820,
      "Ġffgf": 7821,
      "ĠfFfF": 7822,
      "ĠfcDc": 7823,
      "Ġflute": 7824,
      "ĠbBf": 7825,
      "ĠbecA": 7826,
      "ĠbBdB": 7827,
      "Ġbcdb": 7828,
      "ress": 7829,
      "reFX": 7830,
      "Ġare": 7831,
      "Ġabd": 7832,
      "Ġaddd": 7833,
      "ĠaeBe": 7834,
      "Ġabab": 7835,
      "Ġacab": 7836,
      ",,,]/^": 7837,
      "less": 7838,
      "leted": 7839,
      "CEf": 7840,
      "CEFB": 7841,
      "CEGF": 7842,
      "CEAF": 7843,
      "CEAAA": 7844,
      "Ġsp": 7845,
      "Ġsta": 7846,
      "FAdd": 7847,
      "FAFC": 7848,
      "FAAAA": 7849,
      "FAFAa": 7850,
      "EGa": 7851,
      "EGBD": 7852,
      "EGAC": 7853,
      "GBdF": 7854,
      "GBGBE": 7855,
      "CADF": 7856,
      "CAAA": 7857,
      "CADA": 7858,
      "FDe": 7859,
      "FDDD": 7860,
      "FDAAD": 7861,
      "ush": 7862,
      "GEDF": 7863,
      "GEBe": 7864,
      "GEBde": 7865,
      "DFBdf": 7866,
      "CFGB": 7867,
      "CFCFC": 7868,
      "cADF": 7869,
      "EAcf": 7870,
      "EAAE": 7871,
      "BGcA": 7872,
      "BGGF": 7873,
      "BGdg": 7874,
      "BGDC": 7875,
      "ining": 7876,
      "inja": 7877,
      "BdGc": 7878,
      "Bdeg": 7879,
      "BddB": 7880,
      "BdfF": 7881,
      "BdfG": 7882,
      "Bdede": 7883,
      "''/^": 7884,
      "ceaE": 7885,
      "GGGF": 7886,
      "GGGEEE": 7887,
      "CCGG": 7888,
      "CCcc": 7889,
      "DBg": 7890,
      "EBg": 7891,
      "EBGE": 7892,
      "EBgGD": 7893,
      "EEEG": 7894,
      "EEEF": 7895,
      "EEED": 7896,
      "CGcE": 7897,
      "CGggG": 7898,
      "DDDG": 7899,
      "DDcA": 7900,
      "DDddDD": 7901,
      "DDdcddDD": 7902,
      "2293": 7903,
      "FFCF": 7904,
      "283": 7905,
      "GcCE": 7906,
      "GcEC": 7907,
      "GcfF": 7908,
      "GcCEc": 7909,
      "ecfaC": 7910,
      "4844": 7911,
      "AccA": 7912,
      "AcfD": 7913,
      "361": 7914,
      "fdFD": 7915,
      "fddD": 7916,
      "fdaD": 7917,
      "egGc": 7918,
      "egGCg": 7919,
      "egbBGE": 7920,
      "373": 7921,
      "376": 7922,
      "eeFF": 7923,
      "eeED": 7924,
      "GFcf": 7925,
      "BAcA": 7926,
      "BAFG": 7927,
      "ddFD": 7928,
      "ddDG": 7929,
      "ddcc": 7930,
      "ddee": 7931,
      "ddBF": 7932,
      "dddG": 7933,
      "ddDDd": 7934,
      "ffFD": 7935,
      "ffee": 7936,
      "ffGD": 7937,
      "cdE": 7938,
      "cdfb": 7939,
      "cdegb": 7940,
      "cdCDD": 7941,
      "edCD": 7942,
      "edeA": 7943,
      "edGdG": 7944,
      "facA": 7945,
      "faEB": 7946,
      "fagd": 7947,
      "mpus": 7948,
      "398": 7949,
      "GDg": 7950,
      "GDCE": 7951,
      "GDGB": 7952,
      "GDGBG": 7953,
      "fgB": 7954,
      "fgbe": 7955,
      "Sailor": 7956,
      "493": 7957,
      "494": 7958,
      "GCb": 7959,
      "AFce": 7960,
      "ggEE": 7961,
      "cBa": 7962,
      "ĠAAFA": 7963,
      "efAF": 7964,
      "FEBB": 7965,
      "dAe": 7966,
      "dAGF": 7967,
      "cfbBB": 7968,
      "gaC": 7969,
      "gate": 7970,
      "608": 7971,
      "cCdG": 7972,
      "BDf": 7973,
      "BDDB": 7974,
      "dDed": 7975,
      "aAfaECA": 7976,
      "dfE": 7977,
      "eAf": 7978,
      "eADE": 7979,
      "eEgeE": 7980,
      "Ddfd": 7981,
      "Ddbb": 7982,
      "ĠBABG": 7983,
      "gdBd": 7984,
      "gfcf": 7985,
      "gcD": 7986,
      "ĠGAGD": 7987,
      "BbF": 7988,
      "BbgGB": 7989,
      "CcCC": 7990,
      "CcDd": 7991,
      "gGdd": 7992,
      "gGbgG": 7993,
      "fecA": 7994,
      "feBF": 7995,
      "DEecEE": 7996,
      "Aadd": 7997,
      "AadAD": 7998,
      "baga": 7999,
      "ĠDDDG": 8000,
      "fcGc": 8001,
      "fcFf": 8002,
      "Bev": 8003,
      "ĠGGCC": 8004,
      "ĠGGDD": 8005,
      "AdEB": 8006,
      "Adachi": 8007,
      "bgeB": 8008,
      "EeaCA": 8009,
      "FfAa": 8010,
      "FfEe": 8011,
      "cEa": 8012,
      "cEgE": 8013,
      "eam": 8014,
      "Ġcda": 8015,
      "ĠcdGd": 8016,
      "GgDD": 8017,
      "GgEe": 8018,
      "eGgc": 8019,
      "fFaA": 8020,
      "cFfcFf": 8021,
      "ĠBcGc": 8022,
      "ĠBcgG": 8023,
      "ĠBcBAG": 8024,
      "692": 8025,
      "fAfF": 8026,
      "ACP": 8027,
      "ACe": 8028,
      "ACgea": 8029,
      "AGFD": 8030,
      "AGDB": 8031,
      "CFAE": 8032,
      "table": 8033,
      "tack": 8034,
      "ĠEDDGG": 8035,
      "adDD": 8036,
      "Ġddcc": 8037,
      "Ġddaa": 8038,
      "dgA": 8039,
      "dgceb": 8040,
      "ition": 8041,
      "DGBBGD": 8042,
      "DGBdE": 8043,
      "aaGEB": 8044,
      "eCe": 8045,
      "ĠGFGF": 8046,
      "ĠGFCDEG": 8047,
      "ĠEFCD": 8048,
      "DFAcf": 8049,
      "bBfb": 8050,
      "ĠDADD": 8051,
      "ĠDABA": 8052,
      "fBGE": 8053,
      "ĠeeBB": 8054,
      "'-[": 8055,
      "anc": 8056,
      "ĠGBGE": 8057,
      "ĠFAdf": 8058,
      "dcBA": 8059,
      "dcddC": 8060,
      "dFff": 8061,
      "ĠFEDA": 8062,
      "FCAE": 8063,
      "ĠGECA": 8064,
      "ĠGEeE": 8065,
      "GECGECc": 8066,
      "ĠEAe": 8067,
      "orri": 8068,
      "afC": 8069,
      "afD": 8070,
      "ĠcABG": 8071,
      "ĠbaBA": 8072,
      "Ġbattle": 8073,
      "cgGE": 8074,
      "cgGC": 8075,
      "cgffgc": 8076,
      "Ġggff": 8077,
      "AeaAe": 8078,
      "ĠECBA": 8079,
      "fbE": 8080,
      "ĠGDEG": 8081,
      "ĠGDcD": 8082,
      "Ġgdeg": 8083,
      "Ġgdad": 8084,
      "daDA": 8085,
      "AfECA": 8086,
      "ĠceGc": 8087,
      "Ġgefd": 8088,
      "Ġgefg": 8089,
      "ĠaaEE": 8090,
      "Ġaadd": 8091,
      "Ġaaff": 8092,
      "Percussions": 8093,
      "fCa": 8094,
      "AceC": 8095,
      "Aceg": 8096,
      "ĠShi": 8097,
      "ĠSim": 8098,
      "ĠSilver": 8099,
      "ĠecBd": 8100,
      "Ġecge": 8101,
      "Ġdfed": 8102,
      "CDFCDF": 8103,
      "GceG": 8104,
      "ild": 8105,
      "BGECA": 8106,
      "ĠFCCF": 8107,
      "cccBB": 8108,
      "Ġadea": 8109,
      "ĠADcD": 8110,
      "FBdG": 8111,
      "FBdf": 8112,
      "ĠTwo": 8113,
      "ecAEC": 8114,
      "Ġfcgc": 8115,
      "ĠfcFf": 8116,
      "ĠWil": 8117,
      "ĠWood": 8118,
      "ĠWrest": 8119,
      "dEd": 8120,
      "hiro": 8121,
      "BFDD": 8122,
      "ĠBeEG": 8123,
      "ĠBeBd": 8124,
      "AFDdE": 8125,
      "aDf": 8126,
      "2001": 8127,
      "DcFA": 8128,
      "ĠGdgd": 8129,
      "ĠGdgG": 8130,
      "ĠKak": 8131,
      "ĠKingdom": 8132,
      "BDGd": 8133,
      "BDGDG": 8134,
      "DEGDEG": 8135,
      "gecB": 8136,
      "ĠcFCF": 8137,
      "FEDC": 8138,
      "ĠcgBc": 8139,
      "CGcCAc": 8140,
      "bgdG": 8141,
      "lav": 8142,
      "opa": 8143,
      "ĠRes": 8144,
      "ĠNexus": 8145,
      "ĠNinja": 8146,
      "ĠBcdc": 8147,
      "ĠPh": 8148,
      "Cap": 8149,
      "gegB": 8150,
      "ĠcBAdcBc": 8151,
      "GBDEGE": 8152,
      "fadad": 8153,
      "=\"(---": 8154,
      "Ġfeda": 8155,
      "cBAE": 8156,
      "dAFd": 8157,
      "ĠBDEA": 8158,
      "ĠBDEB": 8159,
      "Ġdafd": 8160,
      "BegE": 8161,
      "ĠDDDC": 8162,
      "ĠOn": 8163,
      "ĠOkada": 8164,
      "GFDDF": 8165,
      "AFAAA": 8166,
      "aaaAA": 8167,
      "002": 8168,
      "DGdDG": 8169,
      "roat": 8170,
      "Ġdada": 8171,
      "afdd": 8172,
      "Ġebeae": 8173,
      "FEAD": 8174,
      "oland": 8175,
      "olts": 8176,
      "CCEEGG": 8177,
      "Ġmidi": 8178,
      "ĠaAea": 8179,
      "AAAAAA": 8180,
      "Conga": 8181,
      "Conver": 8182,
      "PIZZ": 8183,
      "ĠdcdA": 8184,
      "ĠdcdG": 8185,
      "ĠcBcG": 8186,
      "AdAdE": 8187,
      "There": 8188,
      "DEFGA": 8189,
      "ĠBfbBfb": 8190,
      "gbgb": 8191
    },
    "merges": [
      ", ,",
      "Ġ z",
      "Ġ |",
      "Ġ [",
      "Ġ %",
      "Ġ ^",
      "Ġ x",
      "Ġ (",
      ",, ]",
      ",, ,",
      ", ]",
      "Ġ G",
      "Ġ A",
      "Ġ D",
      "Ġ B",
      "Ġ C",
      "Ġ E",
      "Ġ _",
      "Ġ F",
      "] [",
      "1 6",
      ",, ^",
      "Ġ[ ^",
      "Ġ c",
      "Ġ d",
      "Ġ =",
      ", ^",
      "Ġ[ _",
      "Ġ e",
      "1 2",
      ",, _",
      "n m",
      "= \"",
      ", _",
      ",,] [",
      "Ġ g",
      "Ġ f",
      "Ġ b",
      ",, /",
      "r e",
      ", /",
      "Ġ a",
      "Ġ[ =",
      ",,, ]",
      "] /",
      ",] [",
      "1 5",
      "Ġ| [",
      ",, =",
      "' ]",
      "l e",
      "Ġ nm",
      "C E",
      "Ġ s",
      "Ġs nm",
      "1 0",
      ",,, ^",
      ",, [",
      "Ġ t",
      "2 1",
      ", =",
      "b le",
      "re ble",
      "Ġt reble",
      "1 1",
      "F A",
      "E G",
      "1 4",
      "s s",
      "a ss",
      "1 3",
      "[ ^",
      "G B",
      "i c",
      "C A",
      "e n",
      "2 4",
      ",,] ^",
      "F D",
      "Ġb ass",
      "][ ^",
      "u s",
      "1 7",
      "us ic",
      "G E",
      "M usic",
      "D F",
      "D G",
      "1 9",
      "E C",
      "C F",
      "' ^",
      "c A",
      "[ _",
      "E A",
      "B G",
      "i n",
      "B d",
      "1 8",
      ",,, _",
      "' '",
      "Ġ Ċ",
      "r a",
      "B B",
      "c e",
      "G G",
      ",,] /",
      "A A",
      ",] /",
      "2 0",
      "][ _",
      "C C",
      "D B",
      "3 2",
      "E B",
      "2 5",
      "2 3",
      "E E",
      "' _",
      "C G",
      ",,][ ^",
      "c c",
      "' d",
      "D D",
      "t r",
      "2 2",
      "F F",
      "c o",
      ", -",
      "D A",
      "n o",
      "t e",
      "2 8",
      "e b",
      "F B",
      "Ġ 1",
      "en t",
      "G c",
      "m ent",
      "3 0",
      "2 6",
      "2 9",
      "Ġ 2",
      "3 1",
      "l in",
      "2 7",
      "o f",
      "a k",
      "e c",
      "en d",
      "4 8",
      ", [",
      "x t",
      "ra g",
      "re ak",
      "< |",
      "| >",
      "te xt",
      "of text",
      "end oftext",
      "Ġ $",
      "ĠF rag",
      "eb reak",
      "lin ebreak",
      "ĠFrag ment",
      "A c",
      "co re",
      "' /",
      "% %",
      "s core",
      "3 3",
      "Ġ 3",
      "3 6",
      "3 4",
      "f d",
      "e g",
      "G A",
      "3 5",
      "3 7",
      "C D",
      "3 8",
      "E F",
      "e e",
      "G F",
      ",, -",
      "4 0",
      "]/ [",
      "/ ^",
      "Ġ )",
      "B A",
      "d d",
      "] -",
      "f f",
      "' ][",
      "c d",
      ",,, /",
      "e d",
      "Ġ 4",
      "f a",
      "m p",
      "4 1",
      "F C",
      "E D",
      "3 9",
      "[ =",
      ",,][ _",
      "B c",
      "F G",
      "' =",
      "4 2",
      "4 4",
      "G D",
      "f g",
      "S tr",
      "4 5",
      "S a",
      "C B",
      ",][ ^",
      "4 9",
      "4 6",
      ",,, =",
      "/ [",
      "5 0",
      "4 3",
      "e r",
      "][ =",
      "G C",
      "A F",
      "] ^",
      "/ -",
      "g g",
      "4 7",
      "B F",
      "> [",
      "e B",
      "c B",
      "ĠA A",
      "Sa mp",
      "e f",
      "E c",
      "Ġ 5",
      "5 2",
      "F E",
      "d A",
      ",,[ ^",
      "c f",
      "g a",
      "d B",
      "6 0",
      "c G",
      "12 0",
      "c C",
      "5 1",
      "B D",
      "Ġ Ġ",
      "g e",
      "5 3",
      "5 5",
      "6 4",
      "P no",
      "d D",
      "/ _",
      "5 6",
      "a r",
      "a A",
      "5 4",
      "B E",
      "d f",
      "n e",
      "e A",
      "CE G",
      "er c",
      "n s",
      "e E",
      "P erc",
      "D d",
      "ĠB A",
      "g d",
      "5 7",
      "] _",
      "g f",
      ",][ _",
      "b b",
      ",,, ][",
      "le c",
      "E lec",
      "g c",
      "ĠG A",
      "G d",
      "B b",
      "8 0",
      "C c",
      "Ġ 6",
      "A E",
      "10 0",
      "A D",
      "5 8",
      "g G",
      "f e",
      "F d",
      "5 9",
      "D E",
      "A a",
      "b d",
      "b a",
      "ĠD D",
      "f c",
      "B e",
      "o s",
      "ĠG G",
      "6 5",
      "A d",
      "b g",
      "no ne",
      "E e",
      "F c",
      "6 1",
      "ĠE E",
      "6 2",
      "F f",
      "i a",
      "7 0",
      "c E",
      "A B",
      "e a",
      "Ġc d",
      "G g",
      "ĠC D",
      "> ^",
      ",,] _",
      "7 2",
      "ĠC C",
      "e G",
      "6 3",
      ",,][ =",
      "EC G",
      ",,[ _",
      "ĠA G",
      "g b",
      "B C",
      "9 0",
      "ĠA B",
      "Ġe d",
      "Ġd c",
      "f F",
      ",, >",
      "b c",
      "os e",
      "ia no",
      "ĠF F",
      "c F",
      "6 6",
      "6 8",
      "P iano",
      "Ġt ra",
      "ĠB c",
      ",,]/ [",
      "ĠB B",
      "6 7",
      "Ġtra ns",
      "p ose",
      "G e",
      "Ġtrans pose",
      "' ]/",
      "6 9",
      "f A",
      "CE A",
      "o n",
      "- ]",
      ",] -",
      "Ġ 7",
      ", >",
      "Ġc c",
      "A C",
      "A G",
      ",, ,,",
      "Ġc B",
      "C FA",
      "t a",
      "= -",
      "ĠE D",
      "ĠG tr",
      "/ =",
      "ĠF G",
      "7 5",
      "a d",
      "Ġd e",
      "Ġd d",
      "in g",
      "7 1",
      ",,,] ^",
      "ĠE G",
      "a c",
      "d g",
      "8 8",
      "' ']",
      ",] ^",
      "7 3",
      "7 6",
      "7 4",
      "ĠD E",
      "ĠĠ ĠĠ",
      "i t",
      "D GB",
      ",]/ [",
      ",/ ^",
      "7 8",
      "a a",
      "e C",
      "FD A",
      "8 5",
      "ĠG F",
      "D C",
      "1 10",
      "AA A",
      "8 4",
      "ĠE F",
      "D FA",
      "b B",
      "ĠC G",
      "8 6",
      "7 9",
      "Str ing",
      "ĠD A",
      "7 7",
      "9 6",
      "ĠD F",
      "d G",
      ",,[ =",
      "S ta",
      "f B",
      "ĠC E",
      "Ġe e",
      "ĠD G",
      "Ġ 8",
      "' -",
      ",][ =",
      "d e",
      "a n",
      ",/ -",
      "l o",
      "8 2",
      "ĠG B",
      "ĠA c",
      ",, (",
      "8 7",
      "8 3",
      "Ġf e",
      "b f",
      "Sta ff",
      "BB B",
      "ĠF A",
      "1 12",
      "g B",
      "d c",
      "d F",
      "ĠF E",
      "F CA",
      "ĠG E",
      ",,, [",
      ",,, ][^",
      "8 1",
      ",,/ ^",
      "GE C",
      "ĠE A",
      "o r",
      "a f",
      "f D",
      "Ġc A",
      "Ġg a",
      "ĠC B",
      "EG B",
      "FA c",
      "E b",
      "BG D",
      "] =",
      "G DB",
      "8 9",
      "ĠD C",
      "GE B",
      ",,] =",
      "c D",
      "12 8",
      "{ /",
      "E CA",
      "< ^",
      "15 0",
      "O r",
      "9 2",
      "EG c",
      ") \"",
      "9 5",
      "ĠF D",
      "c k",
      "b e",
      "c a",
      "C l",
      "9 4",
      "9 8",
      "9 9",
      "ĠB d",
      "Ġf f",
      "ĠC A",
      "r u",
      ",,, -",
      "B f",
      "> _",
      "ĠE B",
      "< [",
      "] >[",
      "Ġb a",
      "ĠD B",
      "11 8",
      "13 0",
      ",/ _",
      "c g",
      "9 3",
      "B g",
      "Ġg f",
      "10 8",
      "a e",
      "' [",
      "Ġa g",
      "c GE",
      "Ġg g",
      "C h",
      "Ġd B",
      "tr ic",
      "A e",
      "] (",
      "9 1",
      "ĠE C",
      "Elec tric",
      "- [",
      "e F",
      "GB d",
      "Ġd A",
      "f b",
      "Ġe f",
      "' ][^",
      "9 7",
      "ĠC F",
      "it ar",
      ",,,] /",
      "Ġf g",
      "i on",
      "ĠG D",
      ",- ]",
      "T ra",
      "u itar",
      "ĠA F",
      "1 16",
      "ĠB G",
      "10 5",
      ", [^",
      "ĠB ass",
      "Ġ 9",
      ",] _",
      "Ġf d",
      "F l",
      "Ġb b",
      "< _",
      "Tra ck",
      "FD B",
      ",,] -",
      "14 0",
      "1 15",
      "B ass",
      "' '^",
      ",, }",
      "]/ [^",
      "g C",
      ", (",
      ",,/ _",
      "10 4",
      "a g",
      "FA d",
      "Ġg d",
      "q u",
      "C e",
      "c h",
      "ĠĠĠĠ ĠĠĠĠ",
      "10 7",
      "10 9",
      "le r",
      "ĠA E",
      "ĠG c",
      "10 2",
      "10 1",
      "g A",
      "d a",
      "Ġ Or",
      "Samp ler",
      "H p",
      "A f",
      "]/ -",
      "11 9",
      "ĠA AAA",
      "u ss",
      "Ġc e",
      "Ġg e",
      "12 5",
      "g E",
      "ĠA d",
      "Ġa a",
      "ru m",
      "Perc uss",
      "tr u",
      "ĠB BBB",
      "10 3",
      "I ns",
      "Percuss ion",
      "tru ment",
      "Ins trument",
      "b A",
      "B r",
      "f C",
      "A ce",
      "g D",
      "DF B",
      "GG G",
      "e D",
      "b G",
      ", [_",
      "Ġ M",
      ",,/ [",
      "CC C",
      ",,/ -",
      "ĠG uitar",
      "f G",
      "EE E",
      "11 7",
      "e t",
      "'' _",
      "10 6",
      "Ġ S",
      "t ic",
      "Ġe c",
      "Ġ H",
      "' ][_",
      "String Instrument",
      "us tic",
      "Ġ 10",
      "G f",
      "Ġc G",
      "co ustic",
      ",,- ]",
      "A FC",
      "m in",
      "b D",
      "Ġd f",
      "C DF",
      "String s",
      "Ġg c",
      "11 4",
      "> =",
      ",/ =",
      "A coustic",
      "G ce",
      "cA F",
      "a m",
      ",,, ][_",
      "14 4",
      "cA E",
      "11 1",
      "- -",
      "a b",
      "t h",
      "Ġe g",
      "FF F",
      "Ġb y",
      "11 3",
      "i l",
      "B GE",
      "ĠF C",
      "cc c",
      "Ġb c",
      "co m",
      "12 6",
      "v e",
      "DD D",
      "u n",
      "EG C",
      "en ce",
      "Ġ Piano",
      "g F",
      "'' =",
      "Ġa d",
      "a l",
      "i o",
      "GB e",
      "b F",
      "ee e",
      "p t",
      "ĠA D",
      "F Bd",
      "o m",
      ",,] (",
      "Ġ T",
      "V l",
      "D rum",
      "e cA",
      "T pt",
      "Ġf c",
      "Bd f",
      "s t",
      "14 5",
      "i g",
      "Ġa b",
      "{ /^",
      "> [^",
      "H ar",
      "ĠOr g",
      "h o",
      "16 0",
      "Ġa c",
      "14 7",
      "T i",
      "b C",
      "BA G",
      "Ġ W",
      "]/ [_",
      ",] =",
      "T r",
      "d E",
      "b E",
      "h i",
      "B FD",
      "u te",
      "ĠB e",
      "12 2",
      "A FD",
      "e lo",
      "13 8",
      "m a",
      "d C",
      "12 9",
      "18 0",
      "'' '",
      "e qu",
      "ĠF B",
      "fg a",
      "12 4",
      "13 2",
      "ed c",
      "> [_",
      "elo d",
      "equ ence",
      "a D",
      "Ti mp",
      "EA c",
      "f E",
      "13 5",
      "G CE",
      "Br s",
      "C b",
      "Bd g",
      "ĠG C",
      "elod y",
      "Ġc f",
      "fd A",
      "ec G",
      "20 0",
      "e m",
      "Ġ 11",
      "E d",
      "O b",
      "eg b",
      "FA D",
      ",/ [",
      "M ar",
      "O c",
      "ce g",
      "13 6",
      "12 1",
      "Drum s",
      "DF G",
      "S equence",
      "A b",
      ",,, >",
      "a re",
      ",, <",
      ",, ,,]",
      "' ]/[",
      "Ġd g",
      "Ġf a",
      "'][ =",
      "Ġ -",
      "ma il",
      "Ġ L",
      "Ġb g",
      "dd d",
      "C GE",
      "ĠĠĠĠĠĠĠĠ ĠĠĠĠĠĠĠĠ",
      "a ve",
      "FD D",
      "CE C",
      ",] (",
      "ar in",
      "A EC",
      "i s",
      "Har p",
      "f cA",
      "Ġb d",
      "14 2",
      "CF G",
      "{ /[",
      "G DG",
      "14 8",
      "n d",
      "D c",
      "13 7",
      "12 3",
      "Ġa e",
      "e l",
      "ĠG d",
      "12 7",
      ",,,] _",
      "Ġ I",
      "EG E",
      "d BG",
      "cd e",
      "F e",
      "GB E",
      "13 1",
      "13 4",
      "14 6",
      "Sa x",
      "s p",
      "Ġe B",
      "t o",
      ",,/ =",
      "o mp",
      "Ġe A",
      "Bd G",
      "Ġ K",
      "Ġe a",
      "a B",
      "E g",
      "- ^",
      "17 0",
      "DG G",
      "ga n",
      "16 5",
      "ĠB E",
      "GA B",
      "a s",
      "y n",
      "ea d",
      "a F",
      "Fl ute",
      "15 2",
      ",] >[",
      "eg c",
      "ĠW ave",
      ",,]/ [^",
      "B DG",
      "15 5",
      "15 8",
      ", <",
      "14 1",
      "mp et",
      "D EG",
      "A df",
      "g ec",
      "Sequence d",
      "Ġ 12",
      "or d",
      "> [=",
      ",, ,,,",
      "GB G",
      "M elody",
      "B cd",
      "H n",
      "13 9",
      "Ġc F",
      "EC C",
      "ru mpet",
      "EF G",
      "qu are",
      "ĠF c",
      "a E",
      "'] -",
      "cA c",
      "CD E",
      "Vl n",
      "/ >",
      "]/[ =",
      ". \"",
      "d b",
      "j o",
      "FA C",
      "omp os",
      "C d",
      "F ED",
      ",,, /^",
      "c EA",
      "Ġf ga",
      "l l",
      "Ġg b",
      "Ġc cc",
      "DG D",
      "in al",
      "V io",
      "T rumpet",
      "Ac f",
      "gg g",
      "]/ ^",
      "< =",
      "Ġc g",
      "a t",
      "ĠG GGG",
      "CF F",
      ",[ =",
      "- _",
      "17 4",
      "BG G",
      "CG c",
      "ĠA e",
      "Bc B",
      "13 3",
      "P ic",
      "14 3",
      "F a",
      "ce a",
      "yn th",
      "Ġ Sax",
      "EG G",
      "'/ -",
      "S quare",
      "h t",
      ",,] }",
      "ff f",
      "F GA",
      "S h",
      "ce A",
      "CG C",
      "D FD",
      "i r",
      "Ġb e",
      "FA A",
      "'/ ^",
      "ĠC CCC",
      "ĠF l",
      "ED C",
      "15 4",
      "'' /",
      "G EG",
      "ce c",
      "ĠOr gan",
      "CE GB",
      "b o",
      "EA d",
      "an d",
      "a C",
      "G tr",
      "b gd",
      "CE B",
      "CA F",
      "15 6",
      "ba g",
      ",]/ -",
      "BB BB",
      "Bd B",
      "bb b",
      "V o",
      "Ġd G",
      "CE F",
      "Gc f",
      "Ġa f",
      "A Bb",
      "CA E",
      "] >",
      "E CE",
      "ch d",
      "h e",
      "s chd",
      "Hp schd",
      "A cc",
      "ĠC CC",
      "FA F",
      "ic e",
      "17 2",
      "Ġc ccc",
      "G sp",
      "a G",
      "f ed",
      "ED E",
      "l a",
      "o b",
      "o p",
      "A EA",
      "C f",
      "A CF",
      "CA A",
      "Ġ J",
      "' >",
      "i p",
      "CE E",
      "'/ _",
      "-- --",
      "Ġ #",
      ",,,] =",
      "GE D",
      "V b",
      "14 9",
      "Vb p",
      "24 0",
      "or n",
      "c EG",
      "GF C",
      "Vl a",
      "B DF",
      "Ġ R",
      "Ġe eee",
      "Ġf F",
      "ĠF FFF",
      "Ġe E",
      "DA d",
      "g dB",
      "Ġ N",
      "Ġf A",
      "GF E",
      "fa c",
      "D BG",
      "FD F",
      "ĠBA G",
      "] <",
      "i m",
      "it le",
      "ĠD d",
      "Tr b",
      "am e",
      "arin et",
      "ĠB cd",
      "CF C",
      "Ġ P",
      "Ġ 13",
      "I D",
      ",,, }",
      "16 2",
      "15 3",
      "ig inal",
      ",,,] -",
      "an i",
      "Br ass",
      "ig ht",
      "C a",
      "ĠE EEE",
      "EC F",
      "G b",
      "Ġd D",
      "FD G",
      "g eg",
      "17 5",
      "B a",
      "ĠA C",
      "17 8",
      "y m",
      "Ġc BA",
      "FD C",
      "cC c",
      "Or iginal",
      "EG A",
      "Cl arinet",
      "GB D",
      "ho ne",
      "cA A",
      "] }",
      "Vo ice",
      "S ynth",
      "ĠF FF",
      "ID I",
      "'' ][",
      "fa d",
      ",,, [^",
      "=\" (",
      "Ġf ed",
      "15 1",
      "GE E",
      "B EG",
      "EA C",
      "Gc d",
      "ĠĠĠĠĠĠĠĠĠĠĠĠĠĠĠĠ ĠĠĠĠĠĠĠĠĠĠĠĠĠĠĠĠ",
      "F CD",
      "BG d",
      "c BA",
      "d AF",
      "m er",
      "t le",
      "Ġe G",
      "gf c",
      "/ (",
      "n g",
      ",,]/ ^",
      "ompos er",
      "aA D",
      ",- ^",
      "{/ [^",
      "DG A",
      "] <[",
      ",, ,,^",
      "cf c",
      "b ass",
      "Ġ Strings",
      "EC B",
      "cA e",
      "fd B",
      "E FA",
      "CE c",
      "C g",
      "17 9",
      ", >^",
      "17 6",
      "'] ^",
      "GF G",
      "dA d",
      "F re",
      "c CC",
      "GD E",
      ", }",
      "e BG",
      "17 7",
      "D f",
      "F BB",
      "d GB",
      "EA A",
      "Timp ani",
      "B GB",
      "ĠB D",
      "ic h",
      "eB e",
      "ĠG GG",
      "Ġe ee",
      "fg c",
      "gf e",
      "Cl v",
      ",, ,,=",
      "Ec G",
      "ob u",
      "C DA",
      "ĠB BB",
      "15 9",
      "Ġ of",
      "dd D",
      "16 4",
      "16 8",
      "Ġb f",
      "' s",
      "D a",
      "Ġd a",
      "Vio lin",
      "F CF",
      "t k",
      ",,, ][=",
      ",,/ >",
      "L ead",
      "FA E",
      "on y",
      "Ac F",
      "GA G",
      "'] _",
      "ll s",
      "b r",
      "o e",
      ",, ,,_",
      "EB E",
      "B eg",
      "ĠD DD",
      "ĠD DDD",
      "fd f",
      "' (",
      "eb e",
      "A CE",
      "D g",
      "GB B",
      "arin a",
      "D b",
      "V c",
      "Ġ 14",
      "25 0",
      "ĠH and",
      "DA D",
      "Gc C",
      "* *",
      "o ir",
      "ich ord",
      "c fa",
      "o w",
      "S q",
      ",] }",
      "Ġd F",
      "Gd G",
      "C DG",
      "DA F",
      "Gc G",
      "Oc arina",
      "E a",
      ",]/ [_",
      "Gc E",
      "Ġ /",
      "Ġ O",
      "/ [^",
      "C H",
      "16 3",
      "G dB",
      "16 9",
      "Ch oir",
      "ĠM as",
      "F GB",
      "16 1",
      ",,, [_",
      "ne l",
      "G FD",
      "15 7",
      "A DF",
      "a obu",
      "c b",
      "EE EE",
      "ae s",
      "jo aobu",
      "joaobu aes",
      "T ba",
      "Pic c",
      "D CA",
      "ĠA Bc",
      "EA B",
      ",]/ [^",
      "D e",
      "d gb",
      "F cf",
      ",,, -]",
      "c FA",
      "GG GG",
      "Sh n",
      "A CA",
      "G uitar",
      "Ġc omposer",
      ",,]/ -",
      "FF FF",
      "cd f",
      "Ob oe",
      "C ym",
      "Ġg ggg",
      "ic hi",
      "BA B",
      ",,,/ -",
      "A DA",
      "u da",
      "< [^",
      "A cA",
      "ĠJ un",
      "f cd",
      "ĠG cd",
      "ce G",
      "s n",
      "FA B",
      "ec C",
      "dA D",
      "G GB",
      "lo ck",
      "A FA",
      "i k",
      "ĠG e",
      "17 1",
      ",,]/ [_",
      "v er",
      "EA E",
      "G CF",
      "g ed",
      "g eB",
      "Ġg B",
      "< [_",
      "W in",
      "y s",
      "aa a",
      "0 0",
      "BG DG",
      "ea e",
      "ĠMas uda",
      "ĠJun ichi",
      ",,/ [^",
      "GE c",
      "em o",
      "2 15",
      "e Gc",
      "z ip",
      ",, ,,,]",
      "]/ _",
      "ĠAD EA",
      "Ġfga d",
      "zip mail",
      "T u",
      "a ec",
      "ĠE c",
      "DG d",
      "ra nd",
      "J am",
      "p hone",
      "Ġc Ac",
      "Bd d",
      ",- _",
      "a fc",
      "r o",
      "ĠD emo",
      "CE Gc",
      "CC CC",
      "i d",
      "gd g",
      "an nel",
      "Win Jam",
      "WinJam mer",
      "]/ >",
      "19 2",
      "A l",
      "ĠA GE",
      "Ġc E",
      "C cC",
      "E DB",
      "Ġ Track",
      "F dA",
      "M IDI",
      ",] >",
      "=\" \"",
      "ed e",
      "E FB",
      "c EC",
      "ĠG o",
      "ĠB F",
      "ĠE EE",
      "cA G",
      "/ [_",
      "DF d",
      "DD A",
      "bo ne",
      "F cA",
      "Ġd dd",
      "Ġ 15",
      "ĠD rum",
      "R ec",
      "U n",
      "ĠA AA",
      "b ge",
      "GE CC",
      "om bone",
      "E cA",
      "16 6",
      "Ġd ad",
      "Ec C",
      "2 20",
      "Ġf b",
      "gb e",
      "ho t",
      "im ba",
      "/ {/",
      "E BG",
      "F g",
      "B ce",
      "a fd",
      "ĠCD EG",
      ",> _",
      "G ame",
      "s ichord",
      "Ġa bc",
      "e st",
      "f FF",
      "]/ =",
      "gg gg",
      "D Bd",
      "GE A",
      "Bd A",
      "ĠK it",
      "z z",
      "Ġb B",
      "\" \"",
      "u r",
      ",,] >[",
      "Cl st",
      "Tr ombone",
      "2 10",
      "G gG",
      "e GC",
      "ĠB o",
      "ĠE ns",
      "' [^",
      "E min",
      "Ġe b",
      "Ġe fg",
      "Ġf fff",
      "en or",
      "'' ''",
      "fa A",
      "ea c",
      "hot mail",
      "e s",
      "g GG",
      "EC D",
      "F b",
      "Ġc C",
      "fa f",
      "A g",
      "b y",
      "y l",
      "DG dg",
      "CF c",
      "Harp sichord",
      "Al to",
      "A aA",
      "ĠA a",
      ",,,] (",
      ",,]/ [=",
      "C GB",
      "E f",
      "G CG",
      "i re",
      ",, >^",
      "ĠD CB",
      "Har m",
      "G FB",
      "c GG",
      "ĠF d",
      "Ġd ef",
      "ĠGA B",
      ", <^",
      "a AA",
      "ĠC CG",
      "ĠE d",
      "Ġd ddd",
      "ec g",
      "'/ =",
      "em e",
      "V i",
      "Ġ 19",
      "ĠF GA",
      "19 0",
      "Bd F",
      "tle ss",
      "F EA",
      "c GEC",
      "16 7",
      "Ġb bbb",
      "EG D",
      "C min",
      "D EA",
      "E EG",
      "u l",
      "ĠF DA",
      "ĠAB ce",
      "ĠEns em",
      "B sn",
      "F dD",
      "d DD",
      "e cc",
      "h eme",
      "Ġc BAG",
      "Ġd ed",
      "DF F",
      ",,- ^",
      "ĠBB cc",
      "un d",
      "ĠL ead",
      "E DA",
      "h s",
      "Bd D",
      "Gd g",
      "ch in",
      "ĠEnsem ble",
      "o k",
      "o l",
      "Ġa ga",
      "cd c",
      "ĠI chin",
      "ĠIchin ose",
      "A min",
      "T enor",
      "o lo",
      "t itle",
      "Ec E",
      "dA dA",
      "Fre tless",
      "title d",
      "Ġd E",
      "DG c",
      "ĠH orn",
      "ĠGcd g",
      "G CC",
      "b fd",
      "M a",
      "e fg",
      ",/ >",
      "CE AA",
      "AA D",
      "ar r",
      "be lls",
      "D DB",
      "c gc",
      "ĠB l",
      "B DB",
      "Ġg G",
      "FD E",
      "ar d",
      "E DG",
      "C cc",
      "S T",
      "] >[_",
      "ĠG rand",
      "CA c",
      "AF CF",
      "ef t",
      "E eE",
      "Ġ Z",
      "GB g",
      "i el",
      "T bells",
      "] >[^",
      "d DG",
      "te r",
      "Ch annel",
      "D DG",
      "E BB",
      "Ġd cB",
      "un ar",
      "---- ----",
      "C CE",
      "C DB",
      "F GE",
      "r d",
      "CG A",
      "Gc F",
      "' [_",
      "G Ac",
      "Ġ m",
      "Ġ 16",
      ",]/ _",
      "c CG",
      "ĠE FG",
      "CE Ac",
      "te m",
      "dD d",
      "lo w",
      "E ng",
      "G DA",
      "c GC",
      "ĠD r",
      "ompos ed",
      "fg f",
      "AF c",
      "ĠEF EF",
      "ĠĠĠĠĠĠĠĠĠĠĠĠĠĠĠĠĠĠĠĠĠĠĠĠĠĠĠĠĠĠĠĠ ĠĠĠĠĠĠĠĠĠĠĠĠĠĠĠĠĠĠĠĠĠĠĠĠĠĠĠĠĠĠĠĠ",
      "G cc",
      "g bd",
      ",,,] /[",
      "ra no",
      ",,> _",
      "c Gc",
      "Ġa A",
      "FD CA",
      "AA AA",
      "fd e",
      "Mar imba",
      "A N",
      "H orn",
      "b fc",
      "e EA",
      "on g",
      "op rano",
      "T itle",
      "b ra",
      "ĠG g",
      "cc C",
      "Mar io",
      "A FF",
      "C GG",
      "ĠF EF",
      "'] >[",
      "19 9",
      "GD C",
      "B gd",
      "G lock",
      "T om",
      "d DA",
      "ĠF GF",
      "- ]/",
      "a v",
      "d BF",
      "l lo",
      "Ġf B",
      "ga b",
      "ne t",
      "Ġcd e",
      "F Gc",
      "R e",
      "d fd",
      "o u",
      "p er",
      "ĠD EF",
      "'] (",
      "CE D",
      "CC G",
      "GA d",
      "cG e",
      "Ff F",
      "ĠI I",
      "Vi bra",
      "R ight",
      "{ /_",
      "Ġe F",
      "en sp",
      "19 8",
      "BG C",
      ",]/ ^",
      "ee E",
      "GF c",
      "bb bb",
      "ensp iel",
      "C on",
      "P is",
      "S oprano",
      "e w",
      ",]/ [=",
      "P I",
      ",,] >",
      "ĠGF ED",
      "Glock enspiel",
      "Vibra phone",
      "C omposed",
      "F FA",
      "G a",
      "Ġd cd",
      "'' ']",
      "'' '=",
      "fd a",
      ",,- _",
      "ar t",
      "ch o",
      ",,/ [_",
      "CF B",
      "FB D",
      "FB c",
      "Bb B",
      "Tu ba",
      "' <",
      "- \"",
      "ĠE e",
      "Ġc Bc",
      "CE e",
      "EG d",
      "DA df",
      "ta l",
      "200 2",
      "Harm ony",
      "B DD",
      "ĠA Bd",
      "ĠA GF",
      "ĠA BAB",
      "ĠD EEE",
      "Ġt he",
      "BG A",
      "AE CA",
      "am ed",
      "ire Mario",
      "] >^",
      "n amed",
      "r i",
      "y lo",
      "Ġb A",
      "ic k",
      "19 7",
      "EB EB",
      ",,,/ =",
      "ĠGA GF",
      "Un named",
      "A dA",
      "F CG",
      "e Ac",
      "f AD",
      "EG Be",
      "17 3",
      "cf F",
      "Ġed c",
      "Ġba g",
      "st le",
      "A Ec",
      "D CD",
      "d DF",
      "ĠG DB",
      "ĠF ED",
      "cA B",
      "EB e",
      "eg e",
      "Sa w",
      "ĠGc Gc",
      "el da",
      "B EB",
      "S ec",
      "l s",
      ",,, (",
      "ĠA f",
      "ĠC c",
      "ĠE DE",
      "GB A",
      "fd d",
      "ef e",
      "gd G",
      "Fc F",
      "ĠT heme",
      "G CA",
      "o th",
      "co lo",
      "AF d",
      "ĠBA B",
      "T he",
      "d FD",
      "g mail",
      "p iano",
      "Ġf edc",
      "Ġa gf",
      "cA C",
      "BG F",
      "ce e",
      "D EF",
      "G eB",
      "L eft",
      "a p",
      "m elody",
      "in t",
      "ĠCD C",
      "ence d",
      "B EC",
      "B FB",
      "D dd",
      "D CB",
      "F dB",
      "d DB",
      "u enced",
      "GB GB",
      "DF c",
      "AA C",
      "23 8",
      "FF B",
      "ĠEB FG",
      "Sec uenced",
      "c aA",
      "r om",
      "ta s",
      "DFA d",
      "? \"",
      "B FC",
      "F EF",
      "d cd",
      "e GE",
      "ĠB y",
      "ĠF Acf",
      "GE CA",
      "ec B",
      "fd D",
      "ff c",
      "Ġfd Bd",
      "FBd B",
      "Pic colo",
      "ys tem",
      "Ġc fgc",
      "FB E",
      "CD C",
      "Bc f",
      "D ED",
      "N ew",
      "CE GC",
      "end o",
      "ef b",
      "Ġcd c",
      "un titled",
      "int endo",
      "A ea",
      "D dD",
      "t ra",
      "Ġ 200",
      ",, >[",
      "Ġc gc",
      "18 5",
      "'' ]/",
      "ce C",
      "ce E",
      "eB GE",
      "dA E",
      "ĠAB cd",
      "ing s",
      "2 24",
      "E EC",
      "E EA",
      "N E",
      "f AF",
      "ĠB cde",
      "ĠF Ac",
      "Ġa aaa",
      "Bd Bd",
      "20 8",
      "25 2",
      "eg G",
      "cf C",
      "gG g",
      "ba b",
      "AN O",
      "Pis te",
      "G ec",
      "S S",
      "BF d",
      "ĠGA G",
      "Ad a",
      "B fd",
      "f Ac",
      "GB c",
      "cA cA",
      "18 4",
      "GG C",
      "eg g",
      "Gd e",
      "Or ch",
      "PI ANO",
      "S t",
      "c CA",
      "c fg",
      "e EE",
      "le s",
      "ba a",
      "F CC",
      "GG D",
      "23 6",
      "gg G",
      "Dd DG",
      "an tas",
      "ĠFl ute",
      "Q u",
      "d fa",
      "o und",
      "ĠD DG",
      "cA D",
      "co rd",
      "ĠCC GG",
      "B FG",
      "o on",
      "ĠA GFE",
      "ĠF ireMario",
      "Ġe C",
      "19 6",
      "DD DD",
      "dA G",
      "** **",
      "b BB",
      "n ch",
      "ic a",
      "EA e",
      ",]/ =",
      "FF C",
      "cd B",
      "ĠGA Bc",
      "D GE",
      "G eg",
      "S n",
      "c cA",
      "d FB",
      "o o",
      "FF E",
      "F EB",
      "P an",
      "e GB",
      "i zz",
      "ĠD FA",
      "ĠC DE",
      "ec E",
      "gd gd",
      "Ġdc BA",
      "/ [=",
      "a i",
      "a z",
      "g ce",
      "ĠA GA",
      "re d",
      "GE CG",
      "ce d",
      "ef c",
      "Ad F",
      "Ġde fg",
      "bo u",
      "ĠN intendo",
      ", <_",
      "A GA",
      "d BB",
      "ĠG ame",
      "ĠD FD",
      "Ġg bd",
      "Bd fg",
      "te el",
      "ĠEF ED",
      "ĠM IDI",
      "ip e",
      "S ystem",
      "a u",
      "e AA",
      "ĠA cd",
      "ĠD GDE",
      "ĠC EA",
      "ĠE CA",
      "CF E",
      "FB F",
      "Ac E",
      "'/ [",
      "ac k",
      "Fre nch",
      "G cA",
      "W d",
      "g BG",
      "Ġc a",
      "Ġf ac",
      "Ġb bb",
      "21 4",
      "Ac a",
      "ar p",
      "eE e",
      "ia n",
      "]< [^",
      "est ra",
      "A R",
      "D EE",
      "D min",
      "S u",
      "a gf",
      "d FA",
      "Ġ V",
      "Ġ 17",
      "ĠG FE",
      "Ġc EAc",
      "DD d",
      "CD FA",
      "FC B",
      "ge G",
      "df b",
      "Fd F",
      "']/ -",
      "DFA c",
      "op hone",
      "ĠZ elda",
      "antas y",
      "B jo",
      "E ce",
      "a cA",
      "d cB",
      "]/ (",
      "]/ >[",
      "cord er",
      "A dD",
      "C cG",
      "g fg",
      "w w",
      "ĠG fcd",
      "ĠE CG",
      "Ġa nd",
      "of t",
      "Or gan",
      "ĠH n",
      "ĠSax ophone",
      "e EB",
      "u i",
      "ĠD c",
      "EG cC",
      "EC c",
      "cA f",
      "'' '_",
      "cc E",
      "tr ings",
      "Ġed cB",
      "Ġed ef",
      "ĠBc Bc",
      "CFA c",
      "bf bf",
      "Re corder",
      ". .",
      "a FD",
      "c EE",
      "d GG",
      "e aA",
      "f Ad",
      "l d",
      "FA cf",
      "Gc g",
      "ee ee",
      "Ġcd eg",
      "dg B",
      "to oth",
      "geg e",
      "ĠBo y",
      "' -]",
      "E ee",
      "F inal",
      "G DD",
      "c FC",
      "t ion",
      "ĠB f",
      "ĠF antasy",
      "Bd b",
      "cG CA",
      "eA E",
      "Vio la",
      "Acc ord",
      "D AA",
      "F ce",
      "X yl",
      "o ne",
      "Ġ Y",
      ",] >[=",
      "Ġf G",
      "Ġf ff",
      "EG e",
      "18 2",
      "30 0",
      "fg b",
      "Ce les",
      "F FD",
      "P ipe",
      "c FF",
      "d rum",
      "e re",
      "Ġ &",
      ",, ,,][",
      "FB e",
      "dA B",
      "c CF",
      "ĠF DB",
      "BG DB",
      "ff F",
      "ga g",
      "ĠBd Bd",
      "Orch estra",
      "G FF",
      "H m",
      "P izz",
      ",, <^",
      "Ġe cAc",
      "FD FD",
      "Hm ca",
      "W hs",
      "] {/^",
      "f DF",
      "Ġc D",
      "Ġd ga",
      "Ġb baa",
      "DA c",
      "GC c",
      "Ec Ec",
      "Tr i",
      "c dd",
      "r r",
      "t p",
      "le ad",
      "CE GA",
      "FD d",
      "Ff D",
      "Ġfed e",
      "= =",
      "A Bc",
      "C DD",
      "N o",
      "c BG",
      "h at",
      "i x",
      "s e",
      "ĠA cea",
      "ĠB g",
      "ĠC h",
      "ĠE BF",
      "Ġg gc",
      "Ġg fe",
      "FA f",
      "20 6",
      "20 7",
      "ee d",
      "FG C",
      "Ġcd ef",
      "Cl av",
      "Bass oon",
      "ok i",
      "E eg",
      "F GF",
      "R U",
      "g cG",
      "l unar",
      "ĠA cAc",
      "'' ][^",
      "AA F",
      "cc G",
      "FF f",
      "dd G",
      ",,,/ _",
      "cf A",
      "ge E",
      "ia ng",
      "Ġga ga",
      "Ġgf ed",
      "Ġgd BG",
      "Ġfga b",
      "! \"",
      "D dA",
      "E EB",
      "G GE",
      "g dA",
      "g bg",
      "s h",
      "ĠG Bd",
      "24 4",
      "AA G",
      "tr o",
      "fd G",
      "EF c",
      "cd a",
      "']/ [^",
      "Sta nd",
      "an ce",
      "al l",
      "Accord ion",
      "Celes ta",
      "D EB",
      "d ed",
      "Ġe ff",
      "gg d",
      "ĠED CB",
      "Tr iang",
      "A Bd",
      "F ff",
      "b dB",
      "d AA",
      "o c",
      "Ġc EBE",
      "Ġa fdf",
      "EG EG",
      "GB F",
      "23 0",
      "fd c",
      "Con tra",
      "az u",
      "Stand ard",
      "C FD",
      "C CF",
      "F fa",
      "f bd",
      "o h",
      "=\" -\"",
      "Ġg uitar",
      "Ġa ecB",
      "eg d",
      "dd B",
      "ar m",
      "']/ [_",
      "Ce llo",
      "Sn are",
      "A DD",
      "B gG",
      "F CE",
      "F GG",
      "G eE",
      "c gb",
      "e EG",
      "Ġ Music",
      "ĠF CA",
      "Ġe fe",
      "'] =",
      "EG Ac",
      "'' ][_",
      "ra c",
      "CC D",
      "ee ea",
      "BA GF",
      "ED CB",
      "eB E",
      "Ġed e",
      "ig h",
      "is h",
      "B BG",
      "E DD",
      "ĠC EG",
      "ĠC GG",
      "EG cG",
      "FD AD",
      "20 9",
      "BA SS",
      "cG CG",
      "mer ged",
      "yl on",
      "/ /",
      ": //",
      "B ar",
      "E FD",
      "L ow",
      "a aA",
      "c GA",
      "g Be",
      "m e",
      "ĠE AE",
      ",,/ (",
      "19 3",
      "Bd bd",
      "EE e",
      "fd F",
      "ĠGA GA",
      "Ff A",
      "ĠED C",
      "ht tp",
      "B FF",
      "D CF",
      "H i",
      "CE FA",
      "FA dD",
      "18 1",
      "EE D",
      "Ac d",
      "er t",
      "gf ed",
      "Ġfg fg",
      "ym ba",
      "Triang le",
      "D BB",
      "G DF",
      "c ac",
      "f eB",
      "g DB",
      "Ġ w",
      "ĠG EB",
      "ĠB cB",
      "ĠE GA",
      ",,,] /-",
      "FA G",
      "DF C",
      "'' '^",
      "BB e",
      "DA G",
      "GA D",
      "Ee G",
      "Ġff FF",
      "ĠM ar",
      "Contra bass",
      "A GE",
      "A GF",
      "G fc",
      "S teel",
      "e DA",
      "f Bd",
      "ĠA de",
      "ĠD CD",
      "ĠD EFG",
      "Ġg gg",
      ",/ [^",
      "Ġa fdA",
      "Ġa eae",
      "cA a",
      "DA B",
      "EF E",
      "AF E",
      "it z",
      "{/ [_",
      "Ġfd fd",
      "ul ar",
      "arr is",
      "A EB",
      "A dd",
      "C an",
      "E CEC",
      "G AA",
      "c GD",
      "d GD",
      "e CE",
      "h arris",
      "t s",
      "Ġ in",
      "ĠA BA",
      "ĠA FC",
      "Ġc AF",
      "Ġd fdf",
      "Ġe dB",
      "CE CE",
      "FA e",
      "BG e",
      "18 7",
      ",,]/ =",
      "cc F",
      "cc cc",
      "Ac ac",
      "eg a",
      "eA B",
      "CEG CEG",
      "Ġcc gg",
      "da ve",
      "Saw tooth",
      "dave harris",
      "A fc",
      "C CA",
      "F cd",
      "R I",
      "a ge",
      "b gf",
      "d ad",
      "e EC",
      "f ef",
      "ĠA BAG",
      "ĠB dg",
      "Ġa gfe",
      "le f",
      "19 4",
      "19 5",
      "CG F",
      "FG d",
      "dB D",
      "gd GA",
      "bg dB",
      "CFA F",
      "Sta ge",
      "or ld",
      "th ony",
      "io ns",
      "equence d",
      "at tle",
      "Ma in",
      "ĠĠĠĠĠĠĠĠĠĠĠĠĠĠĠĠĠĠĠĠĠĠĠĠĠĠĠĠĠĠĠĠĠĠĠĠĠĠĠĠĠĠĠĠĠĠĠĠĠĠĠĠĠĠĠĠĠĠĠĠĠĠĠĠ ĠĠĠĠĠĠĠĠĠĠĠĠĠĠĠĠĠĠĠĠĠĠĠĠĠĠĠĠĠĠĠĠĠĠĠĠĠĠĠĠĠĠĠĠĠĠĠĠĠĠĠĠĠĠĠĠĠĠĠĠĠĠĠĠ",
      "2 12",
      "X G",
      "e ce",
      "g Bd",
      "g fd",
      "Ġ 18",
      ",] <",
      "Ġd BGD",
      "Ġe ce",
      "Ġg A",
      "cA FF",
      "EA ce",
      "dd DD",
      "BD d",
      "E Bd",
      "L O",
      "X ylo",
      "a zz",
      "c CE",
      "c ge",
      "f cG",
      "l on",
      "Ġ 0",
      ",, ,,,^",
      "ĠA cc",
      "ĠE GE",
      "Ġc GED",
      "Ġd fd",
      "GB dg",
      "DF GB",
      "in k",
      "df F",
      "Aa c",
      "Ge C",
      "DGB G",
      "gB g",
      "ĠT a",
      "drum s",
      "RU M",
      "6 65",
      "C cA",
      "E FF",
      "F cC",
      "] >[=",
      "e fa",
      "g BE",
      "k e",
      "l i",
      "ĠC ymba",
      "ĠE cho",
      "Ġe cAE",
      "Ġa AAA",
      "EA G",
      "18 8",
      "FB FB",
      "Bc G",
      "cG g",
      "bb aa",
      "DFA D",
      "Ġba gd",
      "ĠAd v",
      "ĠM or",
      "Ġad fg",
      "' [=",
      "B y",
      "E eA",
      "c FG",
      "d GE",
      "d bd",
      "Ġ \"",
      "ĠG FG",
      "ĠA ECB",
      "ĠF f",
      "Ġd cA",
      "21 3",
      "'' -",
      "GG cc",
      "DA DA",
      "BA E",
      "an thony",
      "Ġga g",
      "ch ere",
      "ĠM elody",
      "ord s",
      "ĠDrum s",
      "ica to",
      "bou chere",
      "bouchere au",
      "A DB",
      "A dB",
      "B CF",
      "R o",
      "S e",
      "g cc",
      "u re",
      "Ġ h",
      ",, <_",
      ",,] <[",
      "ĠD CA",
      "ĠB r",
      "ĠE FE",
      "FA DD",
      "cA FC",
      "AA B",
      "23 5",
      "ga c",
      "dB E",
      "Aa a",
      "D DF",
      "G df",
      "b ular",
      "c Bc",
      "f FA",
      "i e",
      "i z",
      "Ġ :",
      "ĠA oki",
      "ĠC EcC",
      "ĠE cCc",
      "EG Bc",
      "in e",
      ",- ]/",
      "dd dd",
      "Ġdc BG",
      "Ġff cc",
      "Ġaa ga",
      "ĠL unar",
      "ik azu",
      "NE S",
      "ĠMor ikazu",
      "A EE",
      "G min",
      "e eg",
      "g CG",
      ",] >_",
      "Ġd BF",
      "FA a",
      "CA D",
      "cA EA",
      "EA F",
      "AA E",
      "20 2",
      "23 7",
      "Ac D",
      "ge C",
      "ĠBcd B",
      "ĠcBA B",
      "ĠdE Bd",
      "A BA",
      "B R",
      "B GBG",
      "B ack",
      "D dB",
      "E EGG",
      "a fa",
      "a eA",
      "b fB",
      "c Bd",
      "c DA",
      "g GB",
      "i st",
      "Ġ p",
      "ĠG ED",
      "Ġf ef",
      ",,/ [=",
      "18 3",
      "'' ][=",
      "dd A",
      "ed B",
      "aA a",
      "Cc E",
      "ĠBe lls",
      "GDG D",
      "Tu bular",
      "Xylo phone",
      "A ECG",
      "B AA",
      "B eE",
      "F EC",
      "F FAA",
      "G gg",
      "a y",
      "e BF",
      "f DA",
      "f cfc",
      "Ġ Voice",
      "ĠF Gcd",
      "Ġc BcB",
      "CA C",
      "GE e",
      "DG C",
      "18 6",
      "EB A",
      "cc D",
      ",,,/ [",
      "ed D",
      "eA e",
      "AD C",
      "ta re",
      "DGB d",
      "an jo",
      "Ġba gf",
      "ĠAd ef",
      "ĠM an",
      "is e",
      "la p",
      "ui tare",
      "Pizz icato",
      "- =",
      "B DA",
      "e AF",
      "f bB",
      "v o",
      "ĠG ceg",
      "ĠD GBd",
      "ĠF EDC",
      "21 8",
      "EG g",
      "EG BE",
      "eg f",
      "Fc E",
      "ca g",
      "ob ert",
      "A CC",
      "G CB",
      "] {/",
      "a w",
      "c ff",
      "o d",
      "r is",
      "ĠF FAA",
      "Ġa ge",
      "GB cB",
      "24 5",
      "ce gc",
      "DB E",
[...]
